<unk>	0
<s>	0
</s>	0
<pad>	0
<tsp>	0
▁a	-0
th	-1
in	-2
the	-3
er	-4
on	-5
▁the	-6
▁s	-7
ed	-8
▁c	-9
▁o	-10
nd	-11
▁w	-12
re	-13
at	-14
is	-15
or	-16
▁b	-17
▁f	-18
ar	-19
an	-20
▁in	-21
▁p	-22
▁t	-23
al	-24
it	-25
en	-26
es	-27
▁m	-28
▁of	-29
as	-30
▁and	-31
ic	-32
▁h	-33
▁d	-34
ion	-35
ing	-36
ou	-37
▁l	-38
om	-39
▁1	-40
▁to	-41
il	-42
▁n	-43
el	-44
▁re	-45
▁g	-46
am	-47
st	-48
ent	-49
▁is	-50
ol	-51
▁u	-52
ir	-53
▁e	-54
ur	-55
▁2	-56
▁|	-57
et	-58
ac	-59
ation	-60
▁was	-61
▁r	-62
ad	-63
▁st	-64
▁as	-65
ec	-66
▁(	-67
ver	-68
▁wi	-69
ly	-70
▁19	-71
ig	-72
ter	-73
▁on	-74
▁th	-75
▁for	-76
and	-77
ow	-78
ch	-79
▁with	-80
▁al	-81
▁20	-82
le	-83
id	-84
▁j	-85
im	-86
ay	-87
ro	-88
iv	-89
▁fr	-90
ag	-91
ot	-92
▁wh	-93
em	-94
▁k	-95
▁an	-96
▁by	-97
ce	-98
▁it	-99
ut	-100
▁un	-101
ub	-102
est	-103
▁v	-104
us	-105
▁con	-106
ul	-107
ish	-108
op	-109
ia	-110
▁at	-111
▁be	-112
▁ch	-113
um	-114
ity	-115
oc	-116
ra	-117
ian	-118
ated	-119
▁com	-120
ers	-121
un	-122
ab	-123
ist	-124
00	-125
▁from	-126
res	-127
▁mo	-128
ain	-129
▁se	-130
▁or	-131
all	-132
qu	-133
",	-134
","	-135
oun	-136
▁le	-137
se	-138
ap	-139
ber	-140
ort	-141
▁'	-142
ate	-143
ther	-144
▁201	-145
igh	-146
ip	-147
▁ne	-148
ak	-149
▁pl	-150
our	-151
ect	-152
▁cl	-153
▁sp	-154
ld	-155
art	-156
ill	-157
▁he	-158
if	-159
ant	-160
▁de	-161
he	-162
av	-163
od	-164
▁pro	-165
ich	-166
▁are	-167
erv	-168
os	-169
ell	-170
ud	-171
▁y	-172
ited	-173
ount	-174
ies	-175
ates	-176
▁am	-177
ess	-178
uc	-179
ere	-180
▁ar	-181
ear	-182
▁wor	-183
▁18	-184
▁air	-185
▁that	-186
▁his	-187
ie	-188
ound	-189
ame	-190
pp	-191
so	-192
▁states	-193
ast	-194
ial	-195
▁fir	-196
ry	-197
▁has	-198
▁united	-199
ge	-200
ary	-201
▁pr	-202
fter	-203
ard	-204
▁count	-205
▁200	-206
▁ex	-207
▁its	-208
▁sh	-209
▁3	-210
▁first	-211
▁ac	-212
▁su	-213
ue	-214
▁col	-215
ight	-216
ive	-217
▁which	-218
ous	-219
ine	-220
▁comp	-221
▁also	-222
eric	-223
ov	-224
port	-225
▁club	-226
ok	-227
▁gr	-228
ong	-229
▁br	-230
).	-231
▁ind	-232
gh	-233
over	-234
▁city	-235
▁bo	-236
land	-237
own	-238
ack	-239
ied	-240
▁"	-241
per	-242
ign	-243
▁ad	-244
▁were	-245
▁me	-246
▁mar	-247
for	-248
are	-249
▁te	-250
▁tr	-251
ational	-252
▁rec	-253
ember	-254
▁new	-255
ical	-256
eng	-257
ond	-258
▁inc	-259
ust	-260
),	-261
▁world	-262
▁americ	-263
▁us	-264
og	-265
ment	-266
▁per	-267
ace	-268
ough	-269
to	-270
ding	-271
te	-272
ubl	-273
▁bu	-274
▁co	-275
ome	-276
pl	-277
man	-278
▁year	-279
ice	-280
▁comm	-281
ass	-282
.","	-283
▁after	-284
▁ab	-285
▁serv	-286
ions	-287
ure	-288
ans	-289
iver	-290
▁fl	-291
▁cont	-292
ib	-293
age	-294
ach	-295
ional	-296
ade	-297
▁ag	-298
orn	-299
tern	-300
▁war	-301
▁man	-302
▁cent	-303
pt	-304
▁nor	-305
0.	-306
▁play	-307
▁pop	-308
▁ob	-309
ory	-310
▁fo	-311
ric	-312
ire	-313
▁popul	-314
▁4	-315
iz	-316
▁airport	-317
▁sou	-318
ite	-319
wo	-320
ater	-321
▁ast	-322
▁buil	-323
ang	-324
ree	-325
io	-326
▁rel	-327
fer	-328
uring	-329
▁sc	-330
▁app	-331
▁had	-332
▁199	-333
▁part	-334
ord	-335
ased	-336
▁res	-337
form	-338
ely	-339
ball	-340
anc	-341
ave	-342
ide	-343
▁one	-344
ations	-345
▁bec	-346
ik	-347
▁country	-348
ore	-349
ason	-350
inal	-351
ished	-352
▁car	-353
vel	-354
▁sec	-355
▁two	-356
ult	-357
act	-358
▁des	-359
▁form	-360
oll	-361
▁ma	-362
▁publ	-363
urn	-364
ug	-365
▁ear	-366
▁kn	-367
ft	-368
▁off	-369
ile	-370
ron	-371
▁incl	-372
▁dis	-373
▁reg	-374
▁dec	-375
▁loc	-376
▁fe	-377
▁jo	-378
gest	-379
ick	-380
ff	-381
ime	-382
uct	-383
▁eng	-384
▁foot	-385
▁not	-386
▁but	-387
▁season	-388
1,	-389
▁other	-390
▁most	-391
red	-392
serv	-393
▁football	-394
▁rep	-395
ero	-396
no	-397
nder	-398
der	-399
▁pres	-400
▁mus	-401
▁their	-402
▁over	-403
▁sa	-404
▁el	-405
000	-406
amp	-407
oup	-408
▁5	-409
ence	-410
up	-411
ost	-412
▁land	-413
▁north	-414
▁pe	-415
ks	-416
▁team	-417
▁lar	-418
▁bl	-419
les	-420
▁known	-421
▁pre	-422
▁who	-423
▁observ	-424
▁national	-425
▁inform	-426
ivers	-427
▁im	-428
▁mil	-429
▁pol	-430
▁related	-431
ey	-432
way	-433
▁sch	-434
▁includ	-435
we	-436
▁all	-437
▁cons	-438
ph	-439
▁qu	-440
ague	-441
iss	-442
ton	-443
▁building	-444
ix	-445
enc	-446
ual	-447
▁information	-448
▁196	-449
omet	-450
▁cr	-451
▁198	-452
amed	-453
con	-454
4,	-455
▁(1	-456
▁years	-457
▁her	-458
old	-459
▁mon	-460
▁ver	-461
▁tow	-462
."	-463
ents	-464
ts	-465
ince	-466
▁ass	-467
▁high	-468
▁american	-469
▁min	-470
ens	-471
▁second	-472
▁alb	-473
ance	-474
wh	-475
▁made	-476
▁found	-477
▁ed	-478
ren	-479
▁i	-480
▁dish	-481
▁ro	-482
▁go	-483
▁oc	-484
▁par	-485
▁served	-486
▁been	-487
▁194	-488
eroid	-489
▁they	-490
▁league	-491
pe	-492
out	-493
8,	-494
ould	-495
▁asteroid	-496
9,	-497
bur	-498
▁thir	-499
ones	-500
ake	-501
ital	-502
str	-503
▁la	-504
ase	-505
▁sur	-506
▁out	-507
▁up	-508
ock	-509
▁hou	-510
▁county	-511
▁ev	-512
hn	-513
ors	-514
▁record	-515
any	-516
▁under	-517
▁univers	-518
▁ser	-519
uary	-520
0,	-521
▁ph	-522
inc	-523
ower	-524
eral	-525
▁may	-526
▁195	-527
ition	-528
▁design	-529
▁south	-530
▁add	-531
7,	-532
gr	-533
▁ter	-534
▁again	-535
▁rele	-536
ank	-537
ved	-538
▁intern	-539
2,	-540
▁ret	-541
▁gu	-542
iam	-543
▁est	-544
▁gre	-545
▁sing	-546
gan	-547
▁fin	-548
▁dist	-549
▁this	-550
rit	-551
▁div	-552
▁during	-553
▁win	-554
▁we	-555
▁squ	-556
▁bet	-557
ific	-558
▁cap	-559
▁gen	-560
ollow	-561
▁197	-562
ty	-563
▁area	-564
iod	-565
▁state	-566
▁6	-567
▁sub	-568
ob	-569
▁such	-570
ision	-571
▁main	-572
olog	-573
eld	-574
after	-575
▁have	-576
▁into	-577
▁more	-578
ict	-579
iet	-580
5,	-581
▁band	-582
▁name	-583
▁house	-584
▁only	-585
▁west	-586
▁disc	-587
▁var	-588
ail	-589
erman	-590
ool	-591
▁can	-592
▁em	-593
▁ju	-594
▁later	-595
▁acc	-596
▁lead	-597
▁0.	-598
ef	-599
ress	-600
▁music	-601
3,	-602
▁so	-603
ork	-604
ier	-605
',	-606
▁202	-607
▁eur	-608
overn	-609
▁then	-610
▁16	-611
til	-612
▁time	-613
▁used	-614
▁sm	-615
ury	-616
burg	-617
ted	-618
ins	-619
▁dem	-620
ope	-621
▁govern	-622
▁fried	-623
▁period	-624
ures	-625
▁sl	-626
they	-627
▁nov	-628
ween	-629
ious	-630
uss	-631
ont	-632
fl	-633
ve	-634
▁art	-635
▁german	-636
oin	-637
jor	-638
ived	-639
ever	-640
sh	-641
▁four	-642
able	-643
ourn	-644
▁num	-645
▁orb	-646
this	-647
▁cur	-648
▁largest	-649
10	-650
▁while	-651
▁brit	-652
▁no	-653
ese	-654
▁international	-655
▁cre	-656
▁well	-657
ning	-658
▁bat	-659
ale	-660
ptember	-661
▁ap	-662
az	-663
▁island	-664
ident	-665
its	-666
owever	-667
▁named	-668
▁group	-669
▁where	-670
ah	-671
rough	-672
son	-673
4.	-674
ath	-675
air	-676
▁work	-677
▁until	-678
6,	-679
eter	-680
ays	-681
▁mag	-682
▁between	-683
▁orig	-684
▁sever	-685
1.	-686
▁pen	-687
▁prom	-688
ced	-689
▁early	-690
▁char	-691
▁third	-692
9.	-693
ics	-694
ily	-695
▁three	-696
▁192	-697
2.	-698
ually	-699
▁being	-700
erson	-701
▁end	-702
▁offic	-703
–1	-704
iation	-705
▁ge	-706
▁september	-707
br	-708
▁follow	-709
ith	-710
une	-711
▁discover	-712
▁repres	-713
8.	-714
ind	-715
ral	-716
ient	-717
▁common	-718
▁cook	-719
▁university	-720
▁sy	-721
▁inter	-722
abl	-723
ating	-724
▁10	-725
▁population	-726
▁ital	-727
▁represent	-728
aw	-729
▁indian	-730
ern	-731
▁journ	-732
ros	-733
▁journal	-734
ather	-735
ert	-736
min	-737
▁school	-738
ative	-739
▁became	-740
'.	-741
▁str	-742
▁played	-743
ico	-744
one	-745
▁arch	-746
▁av	-747
▁march	-748
▁public	-749
▁mill	-750
▁major	-751
ames	-752
▁km	-753
▁atl	-754
▁elect	-755
▁him	-756
by	-757
▁193	-758
▁ann	-759
uce	-760
▁located	-761
ield	-762
▁rem	-763
▁both	-764
▁jan	-765
▁through	-766
▁appro	-767
▁7	-768
▁book	-769
==	-770
▁mod	-771
ett	-772
▁fam	-773
▁europe	-774
▁sign	-775
ants	-776
▁peop	-777
por	-778
▁186	-779
▁contr	-780
▁sim	-781
struct	-782
▁division	-783
▁album	-784
▁union	-785
▁will	-786
▁when	-787
acon	-788
cess	-789
ene	-790
▁oper	-791
ward	-792
raft	-793
▁would	-794
▁white	-795
▁soc	-796
ct	-797
▁john	-798
▁prov	-799
▁prof	-800
▁century	-801
▁july	-802
▁polit	-803
▁bar	-804
3.	-805
▁8	-806
ially	-807
▁than	-808
▁against	-809
ities	-810
ise	-811
let	-812
▁plan	-813
▁gl	-814
▁released	-815
ject	-816
▁trans	-817
-1	-818
▁ent	-819
erg	-820
▁met	-821
▁prod	-822
▁cal	-823
▁au	-824
.'	-825
▁january	-826
sc	-827
▁manag	-828
ago	-829
▁en	-830
fe	-831
▁won	-832
au	-833
ered	-834
▁america	-835
par	-836
▁z	-837
cl	-838
▁indones	-839
apan	-840
imes	-841
velop	-842
▁establ	-843
▁ant	-844
ole	-845
ez	-846
▁feat	-847
bo	-848
ches	-849
▁call	-850
▁final	-851
ington	-852
fr	-853
▁pass	-854
▁kil	-855
oor	-856
ained	-857
▁contin	-858
5.	-859
ues	-860
▁june	-861
▁east	-862
▁coll	-863
▁company	-864
▁mat	-865
▁mal	-866
pen	-867
icken	-868
▁hist	-869
▁rev	-870
tend	-871
ights	-872
conom	-873
▁econom	-874
raz	-875
part	-876
ike	-877
20	-878
▁ak	-879
▁run	-880
▁popular	-881
▁government	-882
▁sport	-883
ten	-884
▁compet	-885
▁9	-886
pect	-887
▁suc	-888
▁tex	-889
▁power	-890
▁11	-891
▁profess	-892
tober	-893
lar	-894
▁british	-895
▁ay	-896
▁sauce	-897
ri	-898
▁oce	-899
▁==	-900
ings	-901
▁several	-902
gin	-903
ural	-904
▁long	-905
ement	-906
▁old	-907
ology	-908
▁develop	-909
de	-910
other	-911
oss	-912
▁number	-913
▁act	-914
aking	-915
▁people	-916
ner	-917
▁bacon	-918
mar	-919
rict	-920
▁now	-921
born	-922
▁promot	-923
▁191	-924
▁near	-925
▁ocean	-926
▁some	-927
▁capital	-928
▁med	-929
▁miss	-930
ket	-931
▁october	-932
▁bel	-933
rent	-934
▁there	-935
▁imp	-936
▁term	-937
▁since	-938
▁based	-939
▁published	-940
▁mex	-941
▁appear	-942
af	-943
▁led	-944
thern	-945
▁former	-946
very	-947
iau	-948
ains	-949
with	-950
aus	-951
ata	-952
▁italian	-953
urch	-954
▁champ	-955
▁town	-956
ines	-957
▁head	-958
▁center	-959
▁chicken	-960
▁sal	-961
during	-962
ella	-963
itional	-964
▁ren	-965
▁sum	-966
ium	-967
▁bus	-968
▁af	-969
▁goal	-970
ours	-971
ura	-972
▁including	-973
▁trad	-974
▁square	-975
▁million	-976
ato	-977
she	-978
ash	-979
▁har	-980
aj	-981
▁att	-982
▁began	-983
▁ve	-984
tle	-985
oy	-986
▁mid	-987
▁past	-988
▁astron	-989
ution	-990
ters	-991
▁ste	-992
6.	-993
▁rom	-994
ately	-995
ipp	-996
▁fc	-997
alth	-998
of	-999
read	-1000
▁kilomet	-1001
▁aug	-1002
lish	-1003
▁hel	-1004
angu	-1005
▁inst	-1006
osed	-1007
atory	-1008
▁space	-1009
▁atlant	-1010
cur	-1011
ven	-1012
▁cor	-1013
led	-1014
▁consist	-1015
▁ii	-1016
▁force	-1017
ives	-1018
▁success	-1019
▁december	-1020
▁professional	-1021
▁york	-1022
▁august	-1023
ocr	-1024
▁small	-1025
▁hot	-1026
▁return	-1027
▁king	-1028
iness	-1029
▁super	-1030
▁five	-1031
▁november	-1032
▁conf	-1033
▁cle	-1034
▁region	-1035
ose	-1036
ais	-1037
▁english	-1038
▁home	-1039
▁1.	-1040
mat	-1041
▁series	-1042
▁cup	-1043
▁open	-1044
ina	-1045
co	-1046
▁general	-1047
▁tit	-1048
▁she	-1049
▁geor	-1050
▁red	-1051
▁184	-1052
umb	-1053
▁added	-1054
▁side	-1055
▁–	-1056
▁champions	-1057
▁sk	-1058
▁rock	-1059
med	-1060
ument	-1061
▁archit	-1062
▁complet	-1063
▁dif	-1064
ange	-1065
ular	-1066
ounced	-1067
▁called	-1068
ator	-1069
fore	-1070
▁japan	-1071
▁aust	-1072
▁17	-1073
but	-1074
▁langu	-1075
▁current	-1076
xim	-1077
▁model	-1078
▁assoc	-1079
stem	-1080
alf	-1081
ross	-1082
ful	-1083
hip	-1084
▁built	-1085
▁dire	-1086
cent	-1087
▁islands	-1088
ley	-1089
ys	-1090
▁diam	-1091
itar	-1092
▁exp	-1093
ica	-1094
▁bir	-1095
ired	-1096
▁care	-1097
▁member	-1098
▁recip	-1099
ets	-1100
▁political	-1101
ril	-1102
▁inv	-1103
▁poin	-1104
▁back	-1105
▁stud	-1106
▁place	-1107
reek	-1108
▁democr	-1109
▁vers	-1110
▁kw	-1111
▁observatory	-1112
quent	-1113
▁populous	-1114
▁mexico	-1115
▁do	-1116
ined	-1117
▁ang	-1118
xt	-1119
▁mc	-1120
▁district	-1121
▁ir	-1122
dr	-1123
▁direct	-1124
nes	-1125
▁prim	-1126
ized	-1127
iforn	-1128
ifornia	-1129
amb	-1130
▁ten	-1131
▁construct	-1132
▁established	-1133
ided	-1134
abin	-1135
yet	-1136
itary	-1137
▁tower	-1138
▁serie	-1139
▁system	-1140
▁before	-1141
ons	-1142
▁rot	-1143
▁president	-1144
▁di	-1145
▁dr	-1146
▁camp	-1147
▁top	-1148
ane	-1149
▁turn	-1150
▁hours	-1151
▁river	-1152
acc	-1153
there	-1154
▁stre	-1155
▁founded	-1156
▁185	-1157
emb	-1158
▁tra	-1159
▁following	-1160
ured	-1161
▁colon	-1162
ories	-1163
gress	-1164
▁formed	-1165
▁my	-1166
itud	-1167
▁about	-1168
ublic	-1169
na	-1170
uis	-1171
7.	-1172
anish	-1173
his	-1174
▁pal	-1175
ought	-1176
▁california	-1177
▁command	-1178
well	-1179
11	-1180
▁ty	-1181
▁texas	-1182
▁supp	-1183
however	-1184
▁bro	-1185
▁rice	-1186
iew	-1187
que	-1188
▁astronom	-1189
▁bod	-1190
–0	-1191
acy	-1192
raph	-1193
▁language	-1194
▁result	-1195
▁sol	-1196
▁age	-1197
▁fed	-1198
▁del	-1199
ices	-1200
▁ow	-1201
tal	-1202
elf	-1203
▁base	-1204
▁differ	-1205
▁hum	-1206
▁15	-1207
▁defe	-1208
▁arm	-1209
iated	-1210
dom	-1211
ified	-1212
▁them	-1213
ris	-1214
▁official	-1215
ipal	-1216
ister	-1217
▁orbit	-1218
▁six	-1219
eration	-1220
aid	-1221
▁kingdom	-1222
place	-1223
▁der	-1224
craft	-1225
▁tour	-1226
▁refer	-1227
▁beef	-1228
bert	-1229
▁dom	-1230
aar	-1231
▁moved	-1232
ilar	-1233
▁mix	-1234
▁service	-1235
▁original	-1236
▁russ	-1237
26	-1238
▁penyet	-1239
▁rest	-1240
▁april	-1241
rib	-1242
ood	-1243
▁lif	-1244
ild	-1245
▁diameter	-1246
▁sold	-1247
▁aircraft	-1248
▁family	-1249
▁gar	-1250
▁cult	-1251
day	-1252
▁reach	-1253
cept	-1254
adem	-1255
▁start	-1256
▁2.	-1257
▁along	-1258
▁song	-1259
▁similar	-1260
ively	-1261
▁engine	-1262
▁leg	-1263
▁military	-1264
▁sand	-1265
etiau	-1266
bor	-1267
▁ayam	-1268
▁stand	-1269
▁republic	-1270
aces	-1271
▁civ	-1272
estern	-1273
▁hon	-1274
▁cover	-1275
off	-1276
▁ground	-1277
▁bas	-1278
▁use	-1279
▁discovered	-1280
▁tl	-1281
▁party	-1282
▁star	-1283
▁ext	-1284
ior	-1285
ex	-1286
▁sov	-1287
ored	-1288
▁sw	-1289
▁same	-1290
lin	-1291
abel	-1292
▁due	-1293
cat	-1294
▁black	-1295
iving	-1296
▁civil	-1297
ected	-1298
▁21	-1299
iend	-1300
▁-	-1301
itude	-1302
most	-1303
▁light	-1304
▁oil	-1305
▁show	-1306
200	-1307
▁lo	-1308
▁water	-1309
▁colle	-1310
▁quar	-1311
▁person	-1312
ometimes	-1313
▁announced	-1314
▁writ	-1315
akes	-1316
be	-1317
▁hotel	-1318
ause	-1319
▁birth	-1320
▁approxim	-1321
▁line	-1322
▁produc	-1323
aced	-1324
▁commonly	-1325
50	-1326
vent	-1327
▁event	-1328
hio	-1329
ja	-1330
▁23	-1331
▁aid	-1332
year	-1333
▁phil	-1334
unch	-1335
▁left	-1336
▁game	-1337
▁atlantic	-1338
ele	-1339
aving	-1340
ondon	-1341
largest	-1342
▁late	-1343
pend	-1344
▁cold	-1345
lit	-1346
▁vir	-1347
▁next	-1348
▁location	-1349
▁wash	-1350
▁indonesia	-1351
▁occ	-1352
▁soviet	-1353
▁however	-1354
▁nation	-1355
▁val	-1356
▁many	-1357
esp	-1358
▁level	-1359
ips	-1360
ai	-1361
▁becom	-1362
▁afric	-1363
themat	-1364
▁london	-1365
hol	-1366
▁street	-1367
▁approximately	-1368
ording	-1369
ize	-1370
gre	-1371
▁12	-1372
ograph	-1373
▁cla	-1374
ries	-1375
icago	-1376
ull	-1377
▁ing	-1378
▁low	-1379
ony	-1380
▁washington	-1381
▁gave	-1382
▁respect	-1383
ireland	-1384
▁14	-1385
▁vis	-1386
▁earth	-1387
▁great	-1388
▁mart	-1389
ama	-1390
▁park	-1391
ceived	-1392
▁minor	-1393
ible	-1394
▁eth	-1395
▁present	-1396
ster	-1397
▁class	-1398
sequent	-1399
ience	-1400
rist	-1401
▁spanish	-1402
aining	-1403
▁&	-1404
ita	-1405
▁included	-1406
▁chicago	-1407
▁ireland	-1408
bruary	-1409
▁ingred	-1410
▁office	-1411
▁vict	-1412
▁college	-1413
▁runway	-1414
▁february	-1415
▁sun	-1416
▁1,	-1417
▁meas	-1418
▁central	-1419
..	-1420
▁wee	-1421
ned	-1422
catraz	-1423
ano	-1424
▁seat	-1425
als	-1426
▁traditional	-1427
▁mathemat	-1428
zer	-1429
▁days	-1430
▁debut	-1431
▁aar	-1432
sp	-1433
▁sea	-1434
ature	-1435
▁sen	-1436
ians	-1437
ility	-1438
▁economy	-1439
me	-1440
fc	-1441
▁designed	-1442
dern	-1443
▁federal	-1444
ham	-1445
▁sabin	-1446
ection	-1447
▁sty	-1448
▁around	-1449
▁usually	-1450
side	-1451
▁vol	-1452
ble	-1453
▁wid	-1454
ername	-1455
▁large	-1456
▁total	-1457
ocon	-1458
ief	-1459
▁eas	-1460
▁[	-1461
ting	-1462
oconut	-1463
▁inf	-1464
▁kwetiau	-1465
▁189	-1466
▁novel	-1467
▁origin	-1468
ke	-1469
▁arr	-1470
▁conn	-1471
anco	-1472
▁magn	-1473
illa	-1474
nic	-1475
▁expl	-1476
▁guitar	-1477
▁ban	-1478
ces	-1479
▁purch	-1480
ger	-1481
▁western	-1482
ino	-1483
▁jones	-1484
▁signed	-1485
▁career	-1486
▁x	-1487
▁like	-1488
▁fish	-1489
▁educ	-1490
▁award	-1491
▁cooked	-1492
▁european	-1493
ams	-1494
mont	-1495
udding	-1496
ued	-1497
▁depart	-1498
▁returned	-1499
▁bre	-1500
▁edit	-1501
▁championship	-1502
veland	-1503
▁architect	-1504
rop	-1505
pped	-1506
▁miles	-1507
▁singer	-1508
▁history	-1509
▁georg	-1510
▁virgin	-1511
▁cut	-1512
▁down	-1513
uit	-1514
▁recipe	-1515
▁ft	-1516
round	-1517
▁artist	-1518
ination	-1519
▁still	-1520
yn	-1521
▁records	-1522
▁observations	-1523
▁tom	-1524
ne	-1525
▁contract	-1526
▁hun	-1527
▁virginia	-1528
▁sem	-1529
▁bord	-1530
▁features	-1531
▁moon	-1532
▁cleveland	-1533
ilene	-1534
west	-1535
osition	-1536
▁3,	-1537
ma	-1538
▁tal	-1539
▁tur	-1540
▁conc	-1541
2)	-1542
itut	-1543
▁various	-1544
▁(19	-1545
▁business	-1546
▁last	-1547
▁pudding	-1548
▁rad	-1549
▁princ	-1550
anded	-1551
▁congress	-1552
icy	-1553
com	-1554
▁market	-1555
00,	-1556
get	-1557
▁leadername	-1558
▁canad	-1559
▁charac	-1560
▁rotation	-1561
▁aver	-1562
▁subsequent	-1563
▁pot	-1564
▁vermont	-1565
▁partic	-1566
▁alf	-1567
▁life	-1568
ott	-1569
▁born	-1570
ization	-1571
16	-1572
▁er	-1573
▁pa	-1574
akewell	-1575
uay	-1576
iest	-1577
▁terminal	-1578
.,	-1579
acific	-1580
▁turner	-1581
▁though	-1582
▁any	-1583
▁far	-1584
▁friend	-1585
▁day	-1586
▁become	-1587
enue	-1588
▁completed	-1589
▁kilometers	-1590
▁often	-1591
▁short	-1592
iven	-1593
▁coconut	-1594
▁manager	-1595
▁los	-1596
▁games	-1597
▁$	-1598
erged	-1599
tic	-1600
▁3.	-1601
▁ol	-1602
ana	-1603
▁alv	-1604
arem	-1605
▁could	-1606
▁death	-1607
▁hol	-1608
▁germany	-1609
▁rights	-1610
▁cop	-1611
▁rank	-1612
utch	-1613
▁field	-1614
▁ben	-1615
▁each	-1616
since	-1617
▁launch	-1618
▁becoming	-1619
▁green	-1620
ws	-1621
ness	-1622
mer	-1623
oph	-1624
▁orbital	-1625
▁alcatraz	-1626
▁eventually	-1627
▁lu	-1628
▁month	-1629
rap	-1630
▁passeng	-1631
ares	-1632
fered	-1633
▁local	-1634
▁ethnic	-1635
▁word	-1636
▁qual	-1637
▁cam	-1638
▁infl	-1639
▁188	-1640
▁opened	-1641
▁commun	-1642
mit	-1643
▁pacific	-1644
▁greek	-1645
▁cit	-1646
ves	-1647
▁confed	-1648
86	-1649
▁milk	-1650
▁surround	-1651
▁shap	-1652
▁190	-1653
theast	-1654
▁bank	-1655
-2	-1656
▁vill	-1657
▁version	-1658
go	-1659
teen	-1660
ston	-1661
▁seven	-1662
▁roy	-1663
field	-1664
▁fourth	-1665
hab	-1666
iety	-1667
▁sometimes	-1668
▁roman	-1669
▁ohio	-1670
ture	-1671
olution	-1672
ellow	-1673
▁body	-1674
▁army	-1675
while	-1676
ola	-1677
▁project	-1678
ove	-1679
▁bak	-1680
apore	-1681
ae	-1682
▁renamed	-1683
aster	-1684
arch	-1685
▁attend	-1686
▁inde	-1687
▁player	-1688
▁port	-1689
▁making	-1690
▁alm	-1691
▁spec	-1692
▁help	-1693
▁observation	-1694
▁hall	-1695
ival	-1696
▁every	-1697
▁southern	-1698
ancial	-1699
ret	-1700
gg	-1701
atter	-1702
drin	-1703
iev	-1704
▁fill	-1705
▁make	-1706
▁25	-1707
▁site	-1708
▁another	-1709
▁what	-1710
thor	-1711
▁prud	-1712
▁mary	-1713
▁recorded	-1714
ery	-1715
▁singapore	-1716
▁set	-1717
▁social	-1718
▁cuis	-1719
ax	-1720
▁income	-1721
▁adv	-1722
ried	-1723
▁joined	-1724
▁indiana	-1725
▁fac	-1726
▁confeder	-1727
wich	-1728
▁jav	-1729
sk	-1730
▁way	-1731
▁2010	-1732
▁meat	-1733
ikov	-1734
▁tec	-1735
▁separ	-1736
▁cuisine	-1737
ep	-1738
white	-1739
▁fif	-1740
bu	-1741
▁best	-1742
▁dep	-1743
pper	-1744
▁myth	-1745
app	-1746
▁inhab	-1747
▁among	-1748
▁opp	-1749
▁station	-1750
avery	-1751
ateg	-1752
za	-1753
nikov	-1754
▁cour	-1755
▁prudnikov	-1756
▁paste	-1757
▁wil	-1758
▁influ	-1759
▁malays	-1760
▁turk	-1761
wer	-1762
▁den	-1763
iata	-1764
▁quarter	-1765
▁william	-1766
uel	-1767
▁christ	-1768
▁24	-1769
▁monument	-1770
▁100	-1771
▁contains	-1772
▁equ	-1773
▁revolution	-1774
▁ep	-1775
▁astronomer	-1776
▁finished	-1777
▁ur	-1778
▁sky	-1779
▁half	-1780
▁coun	-1781
▁flour	-1782
▁ran	-1783
▁report	-1784
ances	-1785
▁ever	-1786
▁object	-1787
anese	-1788
▁2011	-1789
▁label	-1790
▁did	-1791
een	-1792
ón	-1793
erc	-1794
lands	-1795
▁sett	-1796
iction	-1797
ients	-1798
▁developed	-1799
ann	-1800
▁2009	-1801
▁list	-1802
▁took	-1803
▁just	-1804
▁stad	-1805
lying	-1806
hus	-1807
▁soup	-1808
▁construction	-1809
▁match	-1810
▁iss	-1811
▁consid	-1812
▁financial	-1813
ms	-1814
ien	-1815
lic	-1816
▁nat	-1817
rev	-1818
ages	-1819
0,000	-1820
light	-1821
30	-1822
▁england	-1823
rian	-1824
▁americas	-1825
▁50	-1826
ns	-1827
▁repl	-1828
▁average	-1829
ground	-1830
▁prev	-1831
▁coup	-1832
▁rail	-1833
▁publish	-1834
▁author	-1835
▁mad	-1836
gether	-1837
▁victory	-1838
▁once	-1839
ases	-1840
ots	-1841
deburg	-1842
▁magdeburg	-1843
based	-1844
▁widely	-1845
▁designation	-1846
▁royal	-1847
ales	-1848
▁because	-1849
yd	-1850
▁territ	-1851
ara	-1852
ta	-1853
▁editor	-1854
▁received	-1855
▁regional	-1856
curve	-1857
reat	-1858
ners	-1859
▁independ	-1860
▁ax	-1861
ilo	-1862
▁across	-1863
▁operations	-1864
▁followed	-1865
▁phot	-1866
▁front	-1867
▁order	-1868
dp	-1869
▁stage	-1870
▁department	-1871
ili	-1872
▁2007,	-1873
33	-1874
▁even	-1875
▁times	-1876
▁sug	-1877
▁northern	-1878
▁magnitude	-1879
▁trade	-1880
ency	-1881
▁anderson	-1882
abor	-1883
raw	-1884
ared	-1885
▁post	-1886
▁product	-1887
▁democracy	-1888
band	-1889
▁anc	-1890
▁fre	-1891
▁youn	-1892
▁indonesian	-1893
eds	-1894
▁previous	-1895
▁modern	-1896
▁week	-1897
▁point	-1898
ng	-1899
▁child	-1900
▁standard	-1901
▁organ	-1902
iaz	-1903
atic	-1904
▁these	-1905
▁levels	-1906
▁include	-1907
▁birthplace	-1908
▁mu	-1909
▁ham	-1910
▁landing	-1911
▁mel	-1912
atives	-1913
▁human	-1914
▁techn	-1915
ani	-1916
iga	-1917
▁dest	-1918
▁character	-1919
ling	-1920
api	-1921
▁promotion	-1922
▁mars	-1923
▁eastern	-1924
▁dutch	-1925
07	-1926
now	-1927
ission	-1928
▁histor	-1929
▁promoted	-1930
▁confer	-1931
ena	-1932
int	-1933
▁countries	-1934
▁nav	-1935
▁pan	-1936
▁egg	-1937
orpor	-1938
▁categ	-1939
▁dess	-1940
▁li	-1941
▁corn	-1942
▁surf	-1943
▁successful	-1944
outh	-1945
▁itself	-1946
▁2,	-1947
olis	-1948
▁mount	-1949
▁slavery	-1950
▁throughout	-1951
▁eff	-1952
▁abilene	-1953
ences	-1954
▁names	-1955
ead	-1956
▁georgia	-1957
▁aff	-1958
▁round	-1959
when	-1960
▁fa	-1961
▁mi	-1962
line	-1963
▁fel	-1964
▁(2	-1965
ring	-1966
▁ref	-1967
ark	-1968
atra	-1969
▁fact	-1970
ech	-1971
▁senate	-1972
▁á	-1973
ezz	-1974
umezz	-1975
umezzane	-1976
ological	-1977
▁indust	-1978
▁battle	-1979
▁extend	-1980
▁claim	-1981
▁connect	-1982
antry	-1983
▁academ	-1984
▁hard	-1985
imated	-1986
▁appoin	-1987
ollo	-1988
▁cust	-1989
osion	-1990
americ	-1991
omb	-1992
▁title	-1993
▁within	-1994
iment	-1995
▁183	-1996
enced	-1997
ru	-1998
ksand	-1999
▁gdp	-2000
▁worked	-2001
mark	-2002
ally	-2003
agor	-2004
▁measures	-2005
▁lin	-2006
▁2010,	-2007
63	-2008
▁earl	-2009
▁solo	-2010
▁infantry	-2011
▁education	-2012
eum	-2013
▁dessert	-2014
ille	-2015
▁explosion	-2016
ying	-2017
▁varian	-2018
▁exper	-2019
▁sports	-2020
▁sandwich	-2021
▁thirteen	-2022
▁borders	-2023
augh	-2024
▁mov	-2025
inese	-2026
rad	-2027
▁cer	-2028
▁cub	-2029
▁progr	-2030
▁non	-2031
▁ec	-2032
ora	-2033
▁museum	-2034
▁representatives	-2035
▁mich	-2036
')	-2037
ism	-2038
▁struct	-2039
ode	-2040
▁mosc	-2041
▁surface	-2042
▁2009,	-2043
▁using	-2044
quar	-2045
▁perform	-2046
unc	-2047
▁very	-2048
▁moscow	-2049
▁4.	-2050
▁good	-2051
▁created	-2052
aaron	-2053
▁key	-2054
▁1990	-2055
werp	-2056
▁mot	-2057
ginning	-2058
▁akron	-2059
▁beh	-2060
▁floor	-2061
▁instead	-2062
▁mun	-2063
▁stadium	-2064
espec	-2065
▁blues	-2066
especially	-2067
▁consists	-2068
▁('	-2069
▁associated	-2070
▁tem	-2071
▁highest	-2072
iom	-2073
▁lit	-2074
▁desc	-2075
89	-2076
alls	-2077
quaid	-2078
ideo	-2079
men	-2080
her	-2081
inent	-2082
obl	-2083
▁single	-2084
ca	-2085
oblanco	-2086
▁scored	-2087
yr	-2088
uburn	-2089
embers	-2090
bec	-2091
ometric	-2092
▁discovery	-2093
70	-2094
▁estimated	-2095
uk	-2096
▁winning	-2097
▁impact	-2098
▁playing	-2099
▁said	-2100
▁sumatra	-2101
aur	-2102
▁pak	-2103
american	-2104
▁prem	-2105
orporated	-2106
▁2008	-2107
dle	-2108
▁ship	-2109
ades	-2110
▁antio	-2111
ification	-2112
▁host	-2113
▁describ	-2114
▁defeated	-2115
▁together	-2116
▁science	-2117
▁conference	-2118
arily	-2119
▁counc	-2120
▁garlic	-2121
án	-2122
▁fle	-2123
these	-2124
according	-2125
▁aldrin	-2126
▁proper	-2127
▁representation	-2128
▁emp	-2129
▁bp	-2130
▁ide	-2131
uated	-2132
▁southeast	-2133
fact	-2134
▁natural	-2135
▁planet	-2136
60	-2137
aut	-2138
oon	-2139
▁sapi	-2140
▁competit	-2141
▁superp	-2142
▁development	-2143
▁hand	-2144
▁2019	-2145
▁consisting	-2146
25	-2147
arn	-2148
▁living	-2149
▁continent	-2150
▁africa	-2151
ze	-2152
owers	-2153
end	-2154
▁flight	-2155
from	-2156
heim	-2157
▁tak	-2158
▁considered	-2159
porter	-2160
▁india	-2161
▁health	-2162
▁typ	-2163
▁custom	-2164
▁inn	-2165
▁clubs	-2166
▁const	-2167
▁gra	-2168
▁saw	-2169
▁community	-2170
onn	-2171
▁veget	-2172
▁economic	-2173
▁1998	-2174
efa	-2175
▁uefa	-2176
▁months	-2177
type	-2178
▁ach	-2179
ung	-2180
▁separate	-2181
▁ped	-2182
eles	-2183
▁lanc	-2184
▁scient	-2185
aged	-2186
▁rome	-2187
▁aut	-2188
▁ment	-2189
▁points	-2190
▁americans	-2191
▁ecl	-2192
▁tw	-2193
34	-2194
▁glob	-2195
▁principal	-2196
▁mixed	-2197
km	-2198
▁thus	-2199
ceed	-2200
writ	-2201
▁nood	-2202
▁ancient	-2203
▁ident	-2204
▁tomato	-2205
▁acura	-2206
▁featured	-2207
anymed	-2208
▁nom	-2209
▁mend	-2210
▁resid	-2211
ban	-2212
▁def	-2213
▁almond	-2214
▁highly	-2215
▁approach	-2216
▁confederate	-2217
44	-2218
▁2007	-2219
▁fruit	-2220
▁venue	-2221
▁attack	-2222
▁import	-2223
▁int	-2224
rench	-2225
weet	-2226
80	-2227
bach	-2228
▁went	-2229
omas	-2230
▁support	-2231
ison	-2232
▁loss	-2233
like	-2234
▁role	-2235
▁wal	-2236
ieved	-2237
▁parl	-2238
▁came	-2239
▁30	-2240
▁parliam	-2241
gend	-2242
▁rather	-2243
ables	-2244
▁hold	-2245
oga	-2246
▁having	-2247
▁died	-2248
▁parliament	-2249
bl	-2250
▁pil	-2251
▁2014,	-2252
▁grand	-2253
anged	-2254
▁council	-2255
▁4,	-2256
ably	-2257
▁mixture	-2258
tar	-2259
though	-2260
▁get	-2261
ised	-2262
▁flo	-2263
iptic	-2264
▁full	-2265
▁thomas	-2266
▁province	-2267
▁ber	-2268
▁produced	-2269
40	-2270
ford	-2271
▁press	-2272
therlands	-2273
ria	-2274
group	-2275
▁2000	-2276
▁coach	-2277
▁comb	-2278
▁2012	-2279
▁instr	-2280
isional	-2281
angk	-2282
razil	-2283
▁2014	-2284
▁citation	-2285
▁apollo	-2286
▁currently	-2287
▁guitarist	-2288
▁netherlands	-2289
▁asam	-2290
▁chinese	-2291
▁2015	-2292
▁agra	-2293
▁cars	-2294
▁variation	-2295
iy	-2296
▁global	-2297
▁leading	-2298
arth	-2299
▁axis	-2300
▁size	-2301
▁teow	-2302
▁coast	-2303
iced	-2304
▁pet	-2305
▁jack	-2306
icut	-2307
▁connecticut	-2308
28	-2309
ering	-2310
▁domin	-2311
▁releg	-2312
▁asteroids	-2313
rupt	-2314
▁2013	-2315
quarters	-2316
▁banana	-2317
▁camilla	-2318
icipal	-2319
idge	-2320
istr	-2321
▁continued	-2322
▁brother	-2323
olished	-2324
▁reserv	-2325
▁entered	-2326
▁village	-2327
▁appointed	-2328
▁nations	-2329
quired	-2330
▁rich	-2331
▁fut	-2332
▁atlas	-2333
▁brazil	-2334
erous	-2335
ened	-2336
▁semi	-2337
▁minister	-2338
-0	-2339
▁signific	-2340
▁municipal	-2341
▁mythology	-2342
▁legend	-2343
▁crow	-2344
▁russian	-2345
▁surv	-2346
▁declar	-2347
▁1969	-2348
▁different	-2349
▁pork	-2350
▁category	-2351
rab	-2352
▁det	-2353
▁goals	-2354
zard	-2355
▁belt	-2356
▁collabor	-2357
work	-2358
▁san	-2359
▁primary	-2360
▁serving	-2361
▁replaced	-2362
▁events	-2363
igr	-2364
isl	-2365
▁especially	-2366
ically	-2367
arr	-2368
ugg	-2369
▁nr	-2370
▁particip	-2371
87	-2372
atherine	-2373
▁control	-2374
▁malaysia	-2375
▁ingredients	-2376
da	-2377
▁22	-2378
▁chief	-2379
▁those	-2380
▁primarily	-2381
less	-2382
ract	-2383
tained	-2384
▁held	-2385
▁ethnicgroup	-2386
99	-2387
back	-2388
elling	-2389
▁invest	-2390
▁ecliptic	-2391
▁alvis	-2392
▁legisl	-2393
▁spicy	-2394
▁isis	-2395
▁alfred	-2396
▁members	-2397
▁significant	-2398
ev	-2399
▁tun	-2400
earl	-2401
▁children	-2402
▁middle	-2403
▁foc	-2404
▁secret	-2405
olk	-2406
agen	-2407
▁less	-2408
▁kal	-2409
▁cens	-2410
ersey	-2411
▁establish	-2412
▁retired	-2413
▁prop	-2414
itime	-2415
▁maritime	-2416
risio	-2417
▁avail	-2418
▁jersey	-2419
▁addition	-2420
bel	-2421
illed	-2422
▁distance	-2423
▁gor	-2424
▁finish	-2425
▁ga	-2426
▁lib	-2427
iewed	-2428
▁asian	-2429
▁declared	-2430
▁hunt	-2431
▁leaf	-2432
▁thick	-2433
▁mendrisio	-2434
ways	-2435
partof	-2436
▁ispartof	-2437
▁surrounding	-2438
▁0	-2439
▁prec	-2440
kes	-2441
und	-2442
▁god	-2443
▁“	-2444
osp	-2445
aren	-2446
).","	-2447
▁bright	-2448
▁hamburg	-2449
▁mos	-2450
▁taken	-2451
55	-2452
tor	-2453
▁fifth	-2454
▁spain	-2455
▁2018,	-2456
▁cat	-2457
▁tele	-2458
ossible	-2459
rod	-2460
▁pedas	-2461
▁1950	-2462
▁chair	-2463
▁13	-2464
▁ill	-2465
▁program	-2466
ars	-2467
▁rou	-2468
▁stra	-2469
▁ca	-2470
▁men	-2471
▁28	-2472
▁sat	-2473
▁asia	-2474
▁sq	-2475
uguay	-2476
▁mcquaid	-2477
ogn	-2478
▁census	-2479
▁britain	-2480
mus	-2481
▁impro	-2482
▁turkish	-2483
▁premier	-2484
▁restaur	-2485
uled	-2486
▁transport	-2487
▁society	-2488
▁chairman	-2489
▁mississ	-2490
asa	-2491
▁enc	-2492
▁plants	-2493
▁wom	-2494
▁race	-2495
▁median	-2496
▁—	-2497
▁lot	-2498
▁draft	-2499
sis	-2500
▁wat	-2501
uter	-2502
▁competed	-2503
▁exch	-2504
▁antwerp	-2505
isco	-2506
▁officially	-2507
▁cross	-2508
▁much	-2509
▁mission	-2510
▁tax	-2511
▁lower	-2512
centric	-2513
aij	-2514
▁corpor	-2515
▁although	-2516
▁spart	-2517
vy	-2518
ments	-2519
▁grad	-2520
▁saloon	-2521
▁expanded	-2522
▁po	-2523
oreng	-2524
▁goreng	-2525
▁brought	-2526
▁10.	-2527
▁lack	-2528
▁mean	-2529
▁suf	-2530
bq	-2531
▁law	-2532
97	-2533
rapir	-2534
▁1000	-2535
▁arapir	-2536
ming	-2537
▁uk	-2538
ecut	-2539
▁plant	-2540
▁austrian	-2541
▁187	-2542
▁referred	-2543
baij	-2544
▁association	-2545
▁thin	-2546
▁suggest	-2547
icao	-2548
▁icao	-2549
▁ingredient	-2550
-3	-2551
▁cond	-2552
ippi	-2553
olit	-2554
iograph	-2555
▁2011,	-2556
eja	-2557
▁george	-2558
▁wer	-2559
▁albert	-2560
▁bread	-2561
▁bakewell	-2562
iva	-2563
▁emerged	-2564
▁sir	-2565
ville	-2566
▁provisional	-2567
▁dc	-2568
▁deer	-2569
▁2006	-2570
▁2016,	-2571
ements	-2572
▁stat	-2573
aisa	-2574
▁slices	-2575
▁avo	-2576
▁heav	-2577
▁confl	-2578
▁teams	-2579
rem	-2580
▁deal	-2581
▁russia	-2582
ini	-2583
▁lightcurve	-2584
▁aarhus	-2585
ione	-2586
▁test	-2587
▁vegetables	-2588
more	-2589
aming	-2590
▁fought	-2591
berg	-2592
ezed	-2593
▁cir	-2594
▁own	-2595
▁elected	-2596
▁flights	-2597
▁lat	-2598
▁activ	-2599
ush	-2600
▁fore	-2601
▁centre	-2602
thing	-2603
olved	-2604
radab	-2605
ertain	-2606
▁ice	-2607
▁sil	-2608
ounts	-2609
united	-2610
▁bella	-2611
ashire	-2612
▁offered	-2613
▁lancashire	-2614
emor	-2615
300	-2616
lym	-2617
▁2018	-2618
0°	-2619
▁vi	-2620
gent	-2621
ilies	-2622
▁cost	-2623
▁pred	-2624
▁basket	-2625
oli	-2626
▁big	-2627
▁lik	-2628
▁peer	-2629
▁columb	-2630
▁remaining	-2631
▁remained	-2632
isham	-2633
▁upper	-2634
lt	-2635
▁dim	-2636
▁wife	-2637
▁arena	-2638
▁young	-2639
▁headquarters	-2640
isc	-2641
▁recover	-2642
use	-2643
▁denmark	-2644
▁libr	-2645
▁nine	-2646
▁harbor	-2647
su	-2648
▁mor	-2649
▁subsequently	-2650
▁rese	-2651
▁mississippi	-2652
choy	-2653
▁remain	-2654
▁books	-2655
▁wizard	-2656
▁incre	-2657
follow	-2658
▁mother	-2659
▁important	-2660
hold	-2661
▁sour	-2662
▁serve	-2663
onda	-2664
▁spe	-2665
▁eccentric	-2666
▁doc	-2667
▁kway	-2668
▁kilometres	-2669
▁ah	-2670
▁ell	-2671
▁pap	-2672
▁reb	-2673
▁bran	-2674
▁started	-2675
▁previously	-2676
▁fort	-2677
ksandr	-2678
▁prepar	-2679
la	-2680
pre	-2681
▁0.1	-2682
▁sam	-2683
ators	-2684
▁genre	-2685
opp	-2686
pass	-2687
▁hosp	-2688
▁canada	-2689
▁hospital	-2690
▁sn	-2691
▁ampl	-2692
▁regular	-2693
▁upon	-2694
▁occup	-2695
▁allow	-2696
▁metrop	-2697
▁exchange	-2698
▁sel	-2699
▁honda	-2700
▁antioch	-2701
ffic	-2702
▁fil	-2703
▁concept	-2704
▁originally	-2705
lv	-2706
▁je	-2707
enn	-2708
▁written	-2709
ides	-2710
ancell	-2711
▁2019,	-2712
▁ayers	-2713
val	-2714
▁2005	-2715
▁sound	-2716
▁(3	-2717
▁abarth	-2718
▁empire	-2719
▁management	-2720
liga	-2721
▁resp	-2722
ministr	-2723
▁martin	-2724
▁neigh	-2725
▁instrument	-2726
▁aj	-2727
▁lumezzane	-2728
▁interest	-2729
▁rais	-2730
▁numerous	-2731
▁father	-2732
▁restaurants	-2733
▁eat	-2734
▁1989	-2735
je	-2736
ademia	-2737
ettura	-2738
▁preserv	-2739
▁architettura	-2740
iny	-2741
▁free	-2742
▁gram	-2743
ession	-2744
▁1900,	-2745
▁182	-2746
▁bow	-2747
▁scientific	-2748
▁ana	-2749
▁lived	-2750
▁dishes	-2751
▁pearl	-2752
ense	-2753
▁carl	-2754
although	-2755
▁constructed	-2756
oot	-2757
▁deep	-2758
▁mult	-2759
becue	-2760
▁sit	-2761
cont	-2762
▁pron	-2763
▁auburn	-2764
▁married	-2765
▁food	-2766
ican	-2767
icated	-2768
▁close	-2769
▁african	-2770
▁batagor	-2771
▁mathematics	-2772
els	-2773
▁leader	-2774
▁gorbach	-2775
ged	-2776
▁mer	-2777
itte	-2778
▁does	-2779
▁wars	-2780
▁ranked	-2781
reviewed	-2782
▁burn	-2783
ão	-2784
many	-2785
▁0.0	-2786
▁3.2	-2787
▁beg	-2788
▁performed	-2789
▁footballer	-2790
▁territories	-2791
aya	-2792
ula	-2793
▁commerc	-2794
orns	-2795
▁feet	-2796
olitan	-2797
▁allied	-2798
▁regions	-2799
91	-2800
▁circ	-2801
▁spread	-2802
▁topped	-2803
▁independence	-2804
ume	-2805
ension	-2806
▁passengers	-2807
▁dens	-2808
▁structure	-2809
▁cris	-2810
▁honor	-2811
77	-2812
▁nin	-2813
aughter	-2814
▁church	-2815
▁japanese	-2816
gree	-2817
ining	-2818
▁pat	-2819
5)	-2820
iana	-2821
▁focus	-2822
▁paisa	-2823
▁treat	-2824
door	-2825
▁cuc	-2826
▁data	-2827
ece	-2828
ists	-2829
▁liber	-2830
rd	-2831
▁cab	-2832
▁web	-2833
▁household	-2834
▁°	-2835
iers	-2836
▁prot	-2837
▁brightness	-2838
▁sportiva	-2839
ands	-2840
▁11,	-2841
▁nick	-2842
▁pilot	-2843
anda	-2844
itute	-2845
▁inclination	-2846
▁french	-2847
▁mass	-2848
▁better	-2849
▁adop	-2850
▁loan	-2851
▁majority	-2852
▁passenger	-2853
▁photometric	-2854
▁forces	-2855
oom	-2856
ambal	-2857
▁sambal	-2858
▁position	-2859
3%	-2860
add	-2861
▁joh	-2862
ops	-2863
rews	-2864
▁story	-2865
▁angeles	-2866
aign	-2867
orig	-2868
▁reached	-2869
▁campaign	-2870
aint	-2871
japan	-2872
▁frank	-2873
▁composed	-2874
▁democratic	-2875
ga	-2876
,000	-2877
raig	-2878
▁craig	-2879
▁engines	-2880
▁ganymed	-2881
▁appeared	-2882
5).	-2883
▁squad	-2884
▁metropolitan	-2885
▁given	-2886
▁recogn	-2887
▁derived	-2888
▁ke	-2889
▁aaron	-2890
ny	-2891
500	-2892
▁ce	-2893
▁gall	-2894
93	-2895
inary	-2896
▁riau	-2897
itions	-2898
▁representative	-2899
▁wol	-2900
▁models	-2901
▁2020	-2902
▁akita	-2903
▁france	-2904
uted	-2905
assoc	-2906
▁grow	-2907
▁lost	-2908
▁canadian	-2909
ploy	-2910
▁commission	-2911
▁az	-2912
▁infr	-2913
▁uses	-2914
enh	-2915
omar	-2916
▁paul	-2917
▁65	-2918
▁songs	-2919
bakewell	-2920
▁governor	-2921
eli	-2922
▁syn	-2923
iphol	-2924
▁gt	-2925
▁tro	-2926
▁recipes	-2927
▁2015,	-2928
alys	-2929
▁jul	-2930
ophy	-2931
following	-2932
name	-2933
▁ás	-2934
▁2013,	-2935
▁respectively	-2936
▁wa	-2937
▁sus	-2938
alysis	-2939
▁29	-2940
apolis	-2941
▁commercial	-2942
.1	-2943
▁eccentricity	-2944
cer	-2945
▁fit	-2946
▁bur	-2947
ician	-2948
▁ended	-2949
▁strugg	-2950
76	-2951
▁gran	-2952
▁quality	-2953
gen	-2954
▁basketball	-2955
▁fellow	-2956
▁shares	-2957
▁versus	-2958
90	-2959
▁means	-2960
▁historic	-2961
ocated	-2962
▁cand	-2963
▁draw	-2964
▁james	-2965
▁aud	-2966
▁sri	-2967
▁subst	-2968
▁noodles	-2969
▁uruguay	-2970
bat	-2971
▁31	-2972
some	-2973
▁access	-2974
▁aviation	-2975
see	-2976
▁rap	-2977
ecutive	-2978
▁hyd	-2979
alfred	-2980
2).	-2981
▁bh	-2982
▁1980	-2983
▁cuba	-2984
▁bandeja	-2985
▁reaching	-2986
met	-2987
▁minut	-2988
▁asa	-2989
▁dark	-2990
▁degree	-2991
ards	-2992
▁inhabited	-2993
▁producer	-2994
▁legislature	-2995
78	-2996
▁priv	-2997
▁altern	-2998
ailed	-2999
▁nearby	-3000
▁mm	-3001
▁hill	-3002
▁cargo	-3003
▁tier	-3004
▁election	-3005
▁influenced	-3006
▁austin	-3007
▁crown	-3008
▁inside	-3009
ufact	-3010
▁view	-3011
▁katherine	-3012
▁lee	-3013
▁production	-3014
▁take	-3015
▁don	-3016
▁parts	-3017
town	-3018
▁room	-3019
▁olive	-3020
▁typical	-3021
▁originated	-3022
▁issues	-3023
lines	-3024
▁talent	-3025
▁attended	-3026
ionico	-3027
▁barbecue	-3028
eduled	-3029
▁coupé	-3030
bury	-3031
▁argent	-3032
▁manufact	-3033
▁azer	-3034
enhagen	-3035
▁copenhagen	-3036
▁fig	-3037
aguay	-3038
▁colomb	-3039
▁includes	-3040
▁special	-3041
pa	-3042
▁give	-3043
54	-3044
▁dyn	-3045
▁1996	-3046
▁relegated	-3047
▁lank	-3048
▁hip	-3049
▁tall	-3050
▁azerbaij	-3051
▁*	-3052
▁amplitude	-3053
ioned	-3054
▁road	-3055
▁comics	-3056
lm	-3057
due	-3058
▁bay	-3059
▁potato	-3060
▁property	-3061
▁ra	-3062
▁via	-3063
▁2014.	-3064
7%	-3065
ality	-3066
ander	-3067
▁metres	-3068
▁stories	-3069
state	-3070
▁italy	-3071
▁boston	-3072
▁summer	-3073
▁changed	-3074
▁pi	-3075
also	-3076
uced	-3077
▁ace	-3078
▁ris	-3079
▁fire	-3080
zy	-3081
▁assist	-3082
▁cul	-3083
▁1940	-3084
▁native	-3085
▁families	-3086
ika	-3087
struction	-3088
▁ale	-3089
▁45	-3090
▁pur	-3091
▁edge	-3092
▁board	-3093
itution	-3094
.4	-3095
mon	-3096
▁bands	-3097
▁colonization	-3098
inct	-3099
▁let	-3100
win	-3101
▁librar	-3102
sburg	-3103
▁neg	-3104
5,000	-3105
▁1986	-3106
▁sweet	-3107
▁policy	-3108
▁ram	-3109
▁research	-3110
ither	-3111
writer	-3112
▁date	-3113
▁domest	-3114
ayam	-3115
▁javanese	-3116
▁net	-3117
▁scheduled	-3118
▁arc	-3119
▁2016	-3120
▁older	-3121
▁christian	-3122
▁1960	-3123
ability	-3124
▁writer	-3125
▁break	-3126
ship	-3127
▁few	-3128
▁hop	-3129
▁lanka	-3130
vp	-3131
▁opt	-3132
▁humans	-3133
ayers	-3134
▁spartak	-3135
▁china	-3136
▁innov	-3137
ania	-3138
29	-3139
uck	-3140
book	-3141
▁fem	-3142
▁sund	-3143
▁collap	-3144
▁others	-3145
▁paraguay	-3146
–7	-3147
aped	-3148
shire	-3149
▁acquired	-3150
gar	-3151
▁penins	-3152
▁planets	-3153
▁inhabit	-3154
▁future	-3155
▁mas	-3156
▁paren	-3157
▁ranks	-3158
fa	-3159
▁court	-3160
▁innovation	-3161
sir	-3162
▁fav	-3163
ifest	-3164
▁color	-3165
ersburg	-3166
▁pill	-3167
head	-3168
▁wealth	-3169
▁ba	-3170
utin	-3171
▁naming	-3172
▁priest	-3173
▁musician	-3174
▁1997	-3175
▁wild	-3176
▁look	-3177
▁winter	-3178
▁claud	-3179
▁philos	-3180
three	-3181
▁plays	-3182
▁watson	-3183
zz	-3184
▁covered	-3185
▁inhabitants	-3186
reg	-3187
uries	-3188
▁works	-3189
dam	-3190
ein	-3191
ublin	-3192
▁matches	-3193
ogaard	-3194
▁seasons	-3195
▁nationality	-3196
date	-3197
down	-3198
ndez	-3199
ajoblanco	-3200
▁75	-3201
▁hous	-3202
▁orange	-3203
▁mech	-3204
▁fall	-3205
▁route	-3206
▁hydra	-3207
aston	-3208
▁academy	-3209
ountain	-3210
alb	-3211
▁bah	-3212
▁regiment	-3213
asam	-3214
▁operated	-3215
kins	-3216
ype	-3217
ready	-3218
▁meters	-3219
öl	-3220
▁las	-3221
▁vot	-3222
▁grant	-3223
▁dublin	-3224
3).	-3225
▁cy	-3226
icit	-3227
astella	-3228
iles	-3229
esc	-3230
istic	-3231
stand	-3232
▁naval	-3233
▁master	-3234
▁railway	-3235
▁exist	-3236
▁commander	-3237
acity	-3238
▁observed	-3239
forman	-3240
agon	-3241
▁imm	-3242
story	-3243
▁thous	-3244
▁famous	-3245
ij	-3246
amar	-3247
road	-3248
rote	-3249
▁spent	-3250
ievo	-3251
▁spin	-3252
▁26	-3253
▁establishment	-3254
fu	-3255
▁40	-3256
▁da	-3257
▁dou	-3258
▁placed	-3259
▁density	-3260
▁2017,	-3261
▁liberal	-3262
▁founding	-3263
▁jud	-3264
▁charl	-3265
▁accademia	-3266
▁generally	-3267
▁residents	-3268
▁politician	-3269
▁revolutionary	-3270
7)	-3271
▁avoided	-3272
eteen	-3273
▁2008,	-3274
ilities	-3275
▁nineteen	-3276
cy	-3277
▁q	-3278
major	-3279
▁height	-3280
▁technology	-3281
hic	-3282
itra	-3283
▁cast	-3284
▁consent	-3285
▁tyus	-3286
▁2013.	-3287
▁angola	-3288
▁spring	-3289
rew	-3290
cone	-3291
accone	-3292
och	-3293
▁sv	-3294
ouch	-3295
▁asser	-3296
▁motor	-3297
▁reports	-3298
▁nfl	-3299
▁paz	-3300
ussia	-3301
▁cities	-3302
illi	-3303
▁kit	-3304
akeem	-3305
▁squid	-3306
▁systems	-3307
igned	-3308
▁batter	-3309
bus	-3310
assis	-3311
ounds	-3312
▁core	-3313
▁variant	-3314
atre	-3315
▁hus	-3316
▁satell	-3317
▁obtained	-3318
minated	-3319
iences	-3320
▁colonies	-3321
▁levy	-3322
▁strong	-3323
▁neighbor	-3324
▁playoff	-3325
▁capacity	-3326
abi	-3327
equ	-3328
▁right	-3329
▁thirteenth	-3330
▁peninsula	-3331
orno	-3332
pool	-3333
later	-3334
▁refl	-3335
▁chilli	-3336
▁wall	-3337
lam	-3338
spe	-3339
▁how	-3340
▁fran	-3341
▁cultures	-3342
▁going	-3343
uls	-3344
▁appears	-3345
ala	-3346
wood	-3347
unciation	-3348
link	-3349
tone	-3350
▁live	-3351
ked	-3352
video	-3353
▁takes	-3354
▁#	-3355
▁aida	-3356
▁nationally	-3357
rid	-3358
▁160	-3359
andon	-3360
▁conflict	-3361
ador	-3362
▁radio	-3363
▁smaller	-3364
▁(6	-3365
▁touring	-3366
tr	-3367
▁suffered	-3368
ida	-3369
▁accom	-3370
▁soccer	-3371
▁peoples	-3372
▁daughter	-3373
▁44	-3374
▁tor	-3375
▁occas	-3376
▁outer	-3377
▁begins	-3378
▁committe	-3379
▁librarians	-3380
▁polish	-3381
fish	-3382
iversity	-3383
▁elections	-3384
▁priestley	-3385
▁philosophy	-3386
▁dav	-3387
▁2021,	-3388
▁doctor	-3389
ancellor	-3390
▁philipp	-3391
▁branches	-3392
▁che	-3393
▁tuna	-3394
artist	-3395
sch	-3396
alist	-3397
▁2005,	-3398
▁subur	-3399
musical	-3400
associated	-3401
▁administr	-3402
musicalartist	-3403
▁associatedband	-3404
▁27	-3405
▁unc	-3406
asing	-3407
...	-3408
col	-3409
▁cruis	-3410
▁stock	-3411
▁reason	-3412
▁already	-3413
▁2019.	-3414
▁mayor	-3415
▁wrote	-3416
▁airlines	-3417
ges	-3418
aves	-3419
▁read	-3420
▁gian	-3421
▁seaf	-3422
▁chall	-3423
▁higher	-3424
▁·	-3425
▁memor	-3426
utinous	-3427
mart	-3428
▁put	-3429
acker	-3430
▁particular	-3431
▁2022,	-3432
▁seafood	-3433
▁cookbook	-3434
▁domestic	-3435
alv	-3436
▁industr	-3437
▁available	-3438
▁slight	-3439
▁prominent	-3440
▁carb	-3441
▁spect	-3442
▁covers	-3443
▁mechan	-3444
idel	-3445
ennie	-3446
▁1991,	-3447
▁chassis	-3448
31	-3449
ivorno	-3450
▁things	-3451
▁decided	-3452
▁memorial	-3453
▁committee	-3454
▁graduated	-3455
▁shape	-3456
▁taking	-3457
▁tomatoes	-3458
▁treaties	-3459
aug	-3460
▁purchased	-3461
ump	-3462
▁bowl	-3463
▁klink	-3464
▁employ	-3465
▁brazilian	-3466
rim	-3467
ects	-3468
lymp	-3469
▁olymp	-3470
ruption	-3471
entral	-3472
▁selected	-3473
alt	-3474
greg	-3475
▁ful	-3476
ently	-3477
unk	-3478
▁orbits	-3479
iger	-3480
▁sole	-3481
shaped	-3482
uins	-3483
chron	-3484
▁johnson	-3485
fb	-3486
▁177	-3487
raeli	-3488
▁behind	-3489
▁helped	-3490
▁progress	-3491
▁hit	-3492
▁1861	-3493
▁case	-3494
▁swed	-3495
urther	-3496
▁mater	-3497
▁corruption	-3498
incorporated	-3499
▁2009.	-3500
▁immigr	-3501
▁houston	-3502
inally	-3503
▁never	-3504
▁architecture	-3505
▁(186	-3506
rise	-3507
▁slightly	-3508
▁entire	-3509
beginning	-3510
▁railroad	-3511
▁colombian	-3512
▁superpower	-3513
buil	-3514
oured	-3515
▁init	-3516
▁magaz	-3517
rom	-3518
▁performan	-3519
thod	-3520
▁alph	-3521
▁piaz	-3522
▁losing	-3523
▁leeds	-3524
▁cruises	-3525
▁distrib	-3526
▁amate	-3527
▁eight	-3528
32	-3529
▁carol	-3530
▁today	-3531
▁chievo	-3532
▁forced	-3533
▁richard	-3534
öln	-3535
iples	-3536
▁baku	-3537
▁unincorporated	-3538
four	-3539
▁insp	-3540
▁musical	-3541
▁lim	-3542
▁telev	-3543
▁java	-3544
▁youth	-3545
▁1998,	-3546
▁governed	-3547
▁(2,	-3548
itzer	-3549
▁sque	-3550
▁depot	-3551
▁touch	-3552
▁described	-3553
▁gold	-3554
▁comes	-3555
rice	-3556
ontong	-3557
▁edition	-3558
azz	-3559
construction	-3560
ker	-3561
▁ps	-3562
ayan	-3563
donn	-3564
▁quick	-3565
aqu	-3566
▁trial	-3567
den	-3568
▁110	-3569
▁soft	-3570
university	-3571
donnell	-3572
▁traffic	-3573
▁reported	-3574
oser	-3575
▁introd	-3576
▁pair	-3577
▁balls	-3578
▁thousands	-3579
iographical	-3580
ubb	-3581
anta	-3582
icam	-3583
▁whe	-3584
▁capt	-3585
▁nasa	-3586
icameral	-3587
▁southwest	-3588
▁parkersburg	-3589
roz	-3590
▁dry	-3591
▁boil	-3592
▁steel	-3593
atively	-3594
▁struggle	-3595
▁universal	-3596
56	-3597
cher	-3598
▁tofu	-3599
iveness	-3600
ael	-3601
ras	-3602
▁chap	-3603
▁pref	-3604
▁sciences	-3605
▁pakora	-3606
▁quickly	-3607
▁boogaard	-3608
▁material	-3609
▁movement	-3610
ples	-3611
illips	-3612
▁cerem	-3613
lde	-3614
ylde	-3615
▁women	-3616
▁summit	-3617
▁collect	-3618
▁downtown	-3619
arc	-3620
▁ni	-3621
▁1.2	-3622
minor	-3623
▁2017	-3624
▁5,	-3625
igen	-3626
igenous	-3627
best	-3628
math	-3629
▁rough	-3630
eo	-3631
lex	-3632
▁love	-3633
▁2004,	-3634
▁awarded	-3635
▁glaston	-3636
▁prevent	-3637
▁bicameral	-3638
▁glastonbury	-3639
two	-3640
▁rh	-3641
▁amateur	-3642
▁collapse	-3643
ney	-3644
▁jur	-3645
▁latter	-3646
▁carried	-3647
▁collection	-3648
rich	-3649
▁parents	-3650
▁appearances	-3651
▁bad	-3652
▁ult	-3653
▁fylde	-3654
▁titans	-3655
▁bertone	-3656
▁charles	-3657
▁distinct	-3658
▁launched	-3659
47	-3660
▁28,	-3661
▁box	-3662
▁chili	-3663
▁===	-3664
▁schiphol	-3665
atl	-3666
▁anaheim	-3667
▁transfer	-3668
aan	-3669
0000	-3670
▁son	-3671
▁intercept	-3672
▁proceed	-3673
▁classified	-3674
▁lux	-3675
oring	-3676
▁tart	-3677
▁piazz	-3678
nessee	-3679
▁tennessee	-3680
▁equal	-3681
▁style	-3682
▁abolished	-3683
lo	-3684
ette	-3685
▁culture	-3686
▁ideological	-3687
▁competitiveness	-3688
rep	-3689
▁(20	-3690
their	-3691
▁2004	-3692
▁compan	-3693
ler	-3694
ona	-3695
ute	-3696
ilomar	-3697
▁shaped	-3698
▁walter	-3699
▁republican	-3700
ique	-3701
ength	-3702
▁monte	-3703
▁vehic	-3704
gu	-3705
ignit	-3706
▁indic	-3707
inignit	-3708
▁secession	-3709
▁fans	-3710
▁deter	-3711
▁dynam	-3712
oto	-3713
ously	-3714
▁brown	-3715
▁islam	-3716
▁latin	-3717
▁traditionally	-3718
edo	-3719
ple	-3720
owys	-3721
▁relig	-3722
▁beginning	-3723
▁sister	-3724
▁philippines	-3725
sea	-3726
ouse	-3727
antic	-3728
▁flor	-3729
▁horns	-3730
acca	-3731
ergy	-3732
▁fer	-3733
▁2010.	-3734
▁oppon	-3735
▁decade	-3736
▁malacca	-3737
iaç	-3738
▁cru	-3739
▁kar	-3740
iação	-3741
▁saint	-3742
▁borneo	-3743
▁private	-3744
2%	-3745
▁say	-3746
▁tim	-3747
cohol	-3748
▁alex	-3749
▁join	-3750
▁parliamentary	-3751
bet	-3752
▁pit	-3753
▁van	-3754
▁closed	-3755
103	-3756
▁baade	-3757
▁inches	-3758
pres	-3759
▁juice	-3760
▁engaged	-3761
▁exporter	-3762
ugaw	-3763
▁acres	-3764
▁always	-3765
▁accounts	-3766
▁electric	-3767
▁7,	-3768
erger	-3769
ounded	-3770
▁alago	-3771
▁internal	-3772
allero	-3773
ackerel	-3774
▁volume	-3775
6%	-3776
gun	-3777
▁1995	-3778
▁away	-3779
▁flying	-3780
▁perceived	-3781
▁pronunciation	-3782
15	-3783
ari	-3784
unt	-3785
▁door	-3786
▁siram	-3787
▁defeat	-3788
–18	-3789
–19	-3790
▁mes	-3791
▁malay	-3792
▁queen	-3793
cia	-3794
▁blue	-3795
▁david	-3796
▁skysc	-3797
▁atlanta	-3798
▁variants	-3799
▁indianapolis	-3800
yk	-3801
rosa	-3802
▁find	-3803
▁×	-3804
▁(0.	-3805
▁must	-3806
▁almonds	-3807
▁nineteenth	-3808
14	-3809
▁visit	-3810
▁players	-3811
black	-3812
ighter	-3813
▁recre	-3814
aded	-3815
raper	-3816
00,000	-3817
rel	-3818
ises	-3819
▁dur	-3820
usage	-3821
▁seats	-3822
▁albums	-3823
▁sausage	-3824
boza	-3825
–186	-3826
▁lacks	-3827
▁training	-3828
▁extending	-3829
34:	-3830
iro	-3831
yth	-3832
▁gi	-3833
▁sab	-3834
▁usa	-3835
▁principles	-3836
▁skyscraper	-3837
▁preservation	-3838
▁legends	-3839
▁æ	-3840
▁hen	-3841
▁pian	-3842
ressed	-3843
▁least	-3844
▁bish	-3845
edicated	-3846
▁il	-3847
ault	-3848
▁come	-3849
▁happ	-3850
▁köln	-3851
▁aftermath	-3852
/2	-3853
abau	-3854
angkabau	-3855
▁facilities	-3856
ji	-3857
▁mr	-3858
▁jazz	-3859
▁bishop	-3860
▁formerly	-3861
▁centuries	-3862
▁satellite	-3863
▁newly	-3864
▁hor	-3865
▁catal	-3866
▁further	-3867
▁2012,	-3868
▁ships	-3869
▁places	-3870
▁consult	-3871
irl	-3872
what	-3873
▁14,	-3874
▁got	-3875
▁grew	-3876
▁laws	-3877
▁nrbq	-3878
▁2011.	-3879
▁exh	-3880
▁stan	-3881
▁below	-3882
▁candid	-3883
▁18,	-3884
▁2001	-3885
▁romeo	-3886
▁columbus	-3887
ado	-3888
▁boo	-3889
▁contained	-3890
▁publishing	-3891
bers	-3892
▁heidel	-3893
▁importer	-3894
▁dominance	-3895
▁heidelberg	-3896
1%	-3897
hl	-3898
ashed	-3899
inois	-3900
▁astronaut	-3901
quer	-3902
▁passed	-3903
▁discuss	-3904
▁respons	-3905
▁nickname	-3906
▁(1,	-3907
▁affair	-3908
▁corporation	-3909
▁incorporated	-3910
-12	-3911
▁ef	-3912
▁wra	-3913
▁mostly	-3914
ested	-3915
▁bath	-3916
▁beat	-3917
▁batchoy	-3918
mo	-3919
▁adj	-3920
▁1970	-3921
ram	-3922
wca	-3923
▁60	-3924
▁holy	-3925
ential	-3926
▁owned	-3927
▁groups	-3928
▁infrared	-3929
cast	-3930
ench	-3931
▁rost	-3932
▁amend	-3933
▁floors	-3934
▁earlier	-3935
▁amendment	-3936
▁marsh	-3937
▁collaboration	-3938
agle	-3939
▁smed	-3940
▁niger	-3941
▁radar	-3942
diction	-3943
py	-3944
unct	-3945
antan	-3946
▁alfa	-3947
▁1941,	-3948
anano	-3949
▁smedry	-3950
▁voc	-3951
▁irish	-3952
▁spices	-3953
-20	-3954
▁kg	-3955
onym	-3956
▁rates	-3957
ires	-3958
alled	-3959
under	-3960
▁paella	-3961
▁decentral	-3962
▁happiness	-3963
▁friends	-3964
▁powerful	-3965
▁culminated	-3966
▁raised	-3967
▁mentioned	-3968
▁hind	-3969
inging	-3970
▁video	-3971
▁illinois	-3972
▁manifest	-3973
▁reservations	-3974
▁1776,	-3975
▁roughly	-3976
'),	-3977
ada	-3978
site	-3979
▁should	-3980
▁cooking	-3981
iomaccone	-3982
ube	-3983
wor	-3984
iomay	-3985
▁yout	-3986
▁inequ	-3987
▁network	-3988
oda	-3989
▁meet	-3990
indigenous	-3991
ius	-3992
▁34	-3993
sect	-3994
▁row	-3995
▁calc	-3996
▁outlying	-3997
▁studied	-3998
▁director	-3999
era	-4000
tered	-4001
▁juris	-4002
▁melting	-4003
▁ethnicities	-4004
▁decentralized	-4005
▁alvah	-4006
▁merged	-4007
▁somewhat	-4008
▁jurisdiction	-4009
rain	-4010
▁vlm	-4011
litre	-4012
▁roll	-4013
▁convent	-4014
▁taxation	-4015
▁background	-4016
not	-4017
amas	-4018
▁incarc	-4019
▁immigrant	-4020
▁incarceration	-4021
#-	-4022
aq	-4023
pan	-4024
▁jos	-4025
▁unal	-4026
▁minutes	-4027
▁institute	-4028
ér	-4029
▁326	-4030
▁333	-4031
1–186	-4032
iding	-4033
reled	-4034
▁agre	-4035
enment	-4036
▁1607,	-4037
▁milan	-4038
ienable	-4039
▁polity	-4040
1–1865).	-4041
itarrosa	-4042
▁bahamas	-4043
▁destiny	-4044
▁enlight	-4045
sectional	-4046
sometimes	-4047
▁differing	-4048
▁purchases	-4049
▁quarreled	-4050
▁inequality	-4051
▁proceeding	-4052
▁superpowers	-4053
▁unalienable	-4054
▁(1861–1865).	-4055
▁enlightenment	-4056
aca	-4057
sol	-4058
alex	-4059
empt	-4060
inar	-4061
▁pad	-4062
▁24,	-4063
allas	-4064
para	-4065
▁fell	-4066
▁study	-4067
▁above	-4068
▁sales	-4069
▁filled	-4070
▁1999	-4071
▁fry	-4072
▁cous	-4073
icitas	-4074
▁index	-4075
▁larger	-4076
▁portion	-4077
▁æsir	-4078
additional	-4079
agra	-4080
▁hom	-4081
▁wasp	-4082
▁severed	-4083
arena	-4084
ockey	-4085
▁hockey	-4086
▁resulted	-4087
23	-4088
turn	-4089
▁vic	-4090
▁abradab	-4091
continent	-4092
▁television	-4093
bar	-4094
ardo	-4095
ucted	-4096
▁managed	-4097
▁personal	-4098
▁possible	-4099
jo	-4100
▁meaning	-4101
▁analysis	-4102
har	-4103
ayed	-4104
▁gal	-4105
▁makes	-4106
▁finishing	-4107
19	-4108
▁lontong	-4109
▁variety	-4110
var	-4111
▁lun	-4112
bacon	-4113
▁15,	-4114
▁soy	-4115
stone	-4116
▁night	-4117
mission	-4118
ipe	-4119
▁4-	-4120
▁ces	-4121
▁wide	-4122
▁eaten	-4123
▁wilkes	-4124
tym	-4125
▁2.5	-4126
▁rac	-4127
adesh	-4128
▁etym	-4129
▁mach	-4130
▁failed	-4131
▁achieved	-4132
rabb	-4133
▁batt	-4134
▁seen	-4135
angers	-4136
tlefish	-4137
▁resort	-4138
▁increased	-4139
▁vinc	-4140
pected	-4141
▁honey	-4142
▁adisham	-4143
▁battles	-4144
▁michael	-4145
▁determin	-4146
▁buildings	-4147
▁universit	-4148
kmaar	-4149
▁cuttlefish	-4150
▁underground	-4151
iap	-4152
ambi	-4153
▁arts	-4154
▁kalim	-4155
▁nearly	-4156
▁kalimantan	-4157
yer	-4158
▁flag	-4159
▁real	-4160
▁survey	-4161
▁gib	-4162
▁bhaj	-4163
▁unit	-4164
▁split	-4165
▁improv	-4166
ua	-4167
▁1936	-4168
▁bloom	-4169
▁franc	-4170
▁either	-4171
igner	-4172
▁navy	-4173
ydia	-4174
▁bakso	-4175
▁diver	-4176
▁lydia	-4177
ids	-4178
ylv	-4179
▁inj	-4180
encian	-4181
ylvania	-4182
▁helena	-4183
▁candidate	-4184
fif	-4185
▁wije	-4186
wardene	-4187
▁wijewardene	-4188
apt	-4189
▁sixth	-4190
▁cheese	-4191
▁clim	-4192
▁tas	-4193
▁pale	-4194
▁resemb	-4195
▁phillips	-4196
sey	-4197
▁17,	-4198
ample	-4199
▁letter	-4200
▁alcohol	-4201
pro	-4202
king	-4203
▁cath	-4204
▁stars	-4205
▁grounds	-4206
rip	-4207
▁nap	-4208
▁example	-4209
▁managing	-4210
▁secretary	-4211
▁35	-4212
▁coming	-4213
▁cruise	-4214
▁mexican	-4215
itzerland	-4216
▁fountain	-4217
▁root	-4218
att	-4219
earth	-4220
▁bron	-4221
▁evil	-4222
▁occur	-4223
▁sohio	-4224
▁stony	-4225
▁amat	-4226
▁fight	-4227
▁stir	-4228
▁elong	-4229
▁effect	-4230
▁extract	-4231
▁livorno	-4232
▁elongated	-4233
▁artists	-4234
both	-4235
▁occult	-4236
▁cuts	-4237
▁shows	-4238
–2	-4239
imi	-4240
▁rib	-4241
▁prob	-4242
fering	-4243
▁assault	-4244
abaya	-4245
▁wolf	-4246
▁surabaya	-4247
-19	-4248
base	-4249
▁introduced	-4250
▁sed	-4251
▁mont	-4252
▁autom	-4253
▁heavy	-4254
▁cultural	-4255
▁situated	-4256
▁composition	-4257
▁epoch	-4258
▁ajoblanco	-4259
yo	-4260
òs	-4261
father	-4262
▁inaug	-4263
▁negre	-4264
▁morgan	-4265
▁publisher	-4266
▁relocated	-4267
1)	-4268
▁identified	-4269
cons	-4270
▁1928,	-4271
obb	-4272
/200	-4273
alle	-4274
spap	-4275
▁try	-4276
▁mile	-4277
▁newspap	-4278
▁squadron	-4279
▁translit	-4280
▁industrial	-4281
gobb	-4282
▁fal	-4283
bionico	-4284
hop	-4285
▁gods	-4286
▁zaan	-4287
▁notably	-4288
▁maryland	-4289
chen	-4290
▁ywca	-4291
▁albany	-4292
▁jar	-4293
▁mainly	-4294
▁pastry	-4295
▁siomay	-4296
▁du	-4297
medi	-4298
▁brief	-4299
▁fully	-4300
▁whole	-4301
▁rocket	-4302
▁seventh	-4303
board	-4304
▁divis	-4305
▁julia	-4306
▁adopted	-4307
▁magazine	-4308
öger	-4309
▁lem	-4310
▁gard	-4311
amarind	-4312
▁visayan	-4313
▁suburban	-4314
▁glutinous	-4315
▁designated	-4316
andrews	-4317
▁attempt	-4318
▁engineering	-4319
▁jet	-4320
▁sar	-4321
ipping	-4322
▁leaving	-4323
onet	-4324
▁lou	-4325
▁speed	-4326
anut	-4327
stad	-4328
▁1955	-4329
▁rooms	-4330
ionally	-4331
▁method	-4332
▁peanut	-4333
▁quarterly	-4334
agg	-4335
vert	-4336
va	-4337
ugu	-4338
▁1868,	-4339
▁continues	-4340
▁derby	-4341
▁bruins	-4342
▁destro	-4343
▁extended	-4344
▁squeezed	-4345
▁companies	-4346
▁ut	-4347
▁youtube	-4348
▁services	-4349
▁arapiraca	-4350
▁ok	-4351
▁you	-4352
▁dedicated	-4353
▁technical	-4354
lement	-4355
▁ampara	-4356
▁creator	-4357
▁civilian	-4358
▁battlefield	-4359
▁ath	-4360
▁crispy	-4361
▁dar	-4362
▁esc	-4363
▁1946	-4364
▁veil	-4365
▁judge	-4366
▁course	-4367
3-	-4368
ki	-4369
▁louis	-4370
▁merger	-4371
▁complex	-4372
▁notable	-4373
▁decision	-4374
sty	-4375
▁type	-4376
▁adams	-4377
▁completion	-4378
iff	-4379
aily	-4380
▁fres	-4381
):	-4382
iba	-4383
▁1928	-4384
▁price	-4385
▁toured	-4386
▁austria	-4387
ndes	-4388
▁oak	-4389
▁fred	-4390
▁coastal	-4391
▁programme	-4392
brev	-4393
osen	-4394
▁10,	-4395
▁academic	-4396
▁barr	-4397
▁brig	-4398
▁luanda	-4399
ndesliga	-4400
▁carolina	-4401
▁claudiomaccone	-4402
uth	-4403
▁code	-4404
sterdam	-4405
▁chosen	-4406
bol	-4407
▁bun	-4408
▁2008.	-4409
inations	-4410
▁frequent	-4411
▁chancellor	-4412
beef	-4413
▁block	-4414
▁races	-4415
▁montevideo	-4416
ows	-4417
vers	-4418
▁plane	-4419
▁sliced	-4420
▁felicitas	-4421
iane	-4422
▁1930	-4423
▁powers	-4424
plan	-4425
▁leon	-4426
▁charlie	-4427
jav	-4428
▁(5	-4429
erts	-4430
derney	-4431
▁perman	-4432
▁robert	-4433
▁vig	-4434
▁salv	-4435
speed	-4436
▁harris	-4437
▁switzerland	-4438
ald	-4439
adeh	-4440
oked	-4441
▁see	-4442
▁exerc	-4443
▁allowed	-4444
▁iraq	-4445
▁facility	-4446
lightcurve	-4447
ream	-4448
ecess	-4449
▁1956	-4450
▁concl	-4451
▁fresh	-4452
▁padeh	-4453
abilene	-4454
▁athlet	-4455
.2	-4456
18	-4457
deryk	-4458
▁fryderyk	-4459
)."	-4460
xein	-4461
aquense	-4462
xeinoup	-4463
remiação	-4464
▁according	-4465
▁efxeinoup	-4466
▁arapiraquense	-4467
–6	-4468
▁gives	-4469
▁terms	-4470
▁action	-4471
▁relatively	-4472
jax	-4473
▁dev	-4474
▁ajax	-4475
▁anim	-4476
▁teach	-4477
▁bodies	-4478
▁lasalle	-4479
▁publications	-4480
mod	-4481
ushed	-4482
querque	-4483
▁involved	-4484
▁additional	-4485
▁jam	-4486
▁garth	-4487
▁compete	-4488
▁israeli	-4489
▁propell	-4490
▁counties	-4491
erto	-4492
among	-4493
▁simon	-4494
oleague	-4495
▁azerbaijan	-4496
▁discoverer	-4497
38	-4498
aba	-4499
ols	-4500
pron	-4501
alvah	-4502
▁offices	-4503
▁euroleague	-4504
borne	-4505
▁rain	-4506
accabi	-4507
▁annual	-4508
lor	-4509
anced	-4510
linder	-4511
▁werft	-4512
▁zitarrosa	-4513
▁transferred	-4514
8%	-4515
iday	-4516
song	-4517
▁maccabi	-4518
▁foundation	-4519
hel	-4520
ión	-4521
▁rare	-4522
▁snack	-4523
▁albedo	-4524
▁winner	-4525
▁spell	-4526
▁proble	-4527
▁rapper	-4528
▁impossible	-4529
god	-4530
▁penns	-4531
▁pennsylvania	-4532
uy	-4533
aff	-4534
▁ha	-4535
itiba	-4536
▁petr	-4537
▁rams	-4538
▁listed	-4539
▁pepper	-4540
▁barboza	-4541
▁songwriter	-4542
▁1982	-4543
▁chart	-4544
▁norse	-4545
0°,	-4546
▁1958	-4547
▁able	-4548
▁farm	-4549
▁2018.	-4550
▁factor	-4551
▁release	-4552
▁newspaper	-4553
gl	-4554
▁180	-4555
▁1913	-4556
▁extra	-4557
▁create	-4558
▁electron	-4559
▁aleksandr	-4560
▁religious	-4561
aka	-4562
▁lb	-4563
▁saf	-4564
opped	-4565
▁finals	-4566
▁succeed	-4567
matis	-4568
▁media	-4569
▁regard	-4570
▁submar	-4571
▁clematis	-4572
tod	-4573
jack	-4574
today	-4575
▁swiss	-4576
▁−	-4577
▁ze	-4578
▁rub	-4579
holder	-4580
▁ceres	-4581
▁alagoas	-4582
▁fighter	-4583
▁operating	-4584
▁neighboring	-4585
ll	-4586
foot	-4587
iple	-4588
ancer	-4589
fried	-4590
▁successor	-4591
▁ˈ	-4592
▁(7	-4593
▁jr	-4594
▁1947	-4595
uction	-4596
rimp	-4597
▁fund	-4598
▁mort	-4599
▁active	-4600
▁shrimp	-4601
▁representing	-4602
±0.	-4603
▁cred	-4604
▁poet	-4605
▁guest	-4606
▁deathplace	-4607
regon	-4608
▁1860	-4609
▁1961	-4610
umbers	-4611
▁oregon	-4612
▁seminar	-4613
▁demolished	-4614
sl	-4615
▁£	-4616
▁fair	-4617
▁kant	-4618
▁cakes	-4619
▁desoto	-4620
▁northeast	-4621
arian	-4622
gregate	-4623
▁dallas	-4624
▁luxury	-4625
▁aggregate	-4626
▁touchdown	-4627
alo	-4628
avor	-4629
hood	-4630
ompass	-4631
▁might	-4632
▁flavor	-4633
▁romance	-4634
▁runways	-4635
▁writing	-4636
▁territory	-4637
▁2021	-4638
riciana	-4639
▁continu	-4640
▁romania	-4641
▁powys	-4642
ift	-4643
prek	-4644
▁cert	-4645
▁felix	-4646
▁geprek	-4647
▁greece	-4648
▁scoring	-4649
/20	-4650
▁8,	-4651
miss	-4652
olen	-4653
rust	-4654
eper	-4655
▁caus	-4656
▁website	-4657
▁generation	-4658
sel	-4659
▁36	-4660
opher	-4661
▁bill	-4662
▁gear	-4663
▁2022.	-4664
▁lunar	-4665
▁plains	-4666
▁austral	-4667
▁purchase	-4668
73	-4669
my	-4670
cib	-4671
built	-4672
style	-4673
▁sect	-4674
▁marri	-4675
▁cousin	-4676
▁mosque	-4677
▁stands	-4678
▁straight	-4679
ín	-4680
▁kh	-4681
belt	-4682
sque	-4683
▁drug	-4684
▁kill	-4685
▁pers	-4686
▁1989)	-4687
squeezed	-4688
▁jackson	-4689
▁bloomington	-4690
▁municipality	-4691
aled	-4692
▁links	-4693
▁confir	-4694
▁refers	-4695
▁dimitra	-4696
▁sources	-4697
▁starting	-4698
mond	-4699
▁folk	-4700
season	-4701
▁hera	-4702
▁crime	-4703
osh	-4704
▁almost	-4705
▁double	-4706
▁operate	-4707
new	-4708
▁rivers	-4709
▁provided	-4710
aidastella	-4711
▁successfully	-4712
lem	-4713
▁3–0	-4714
▁cem	-4715
acent	-4716
etery	-4717
▁whose	-4718
▁franch	-4719
▁vehicle	-4720
▁adjacent	-4721
▁cemetery	-4722
▁cucumbers	-4723
▁continental	-4724
mi	-4725
onso	-4726
▁2–1	-4727
▁loy	-4728
agues	-4729
▁weeks	-4730
▁alfredo	-4731
▁6,	-4732
mini	-4733
wards	-4734
▁howard	-4735
▁review	-4736
▁titles	-4737
▁pradesh	-4738
▁northwest	-4739
51	-4740
iang	-4741
▁flat	-4742
chester	-4743
iaf	-4744
▁bor	-4745
▁sugar	-4746
▁commissioned	-4747
amin	-4748
▁pra	-4749
▁2020,	-4750
▁husband	-4751
aleksandr	-4752
used	-4753
▁cov	-4754
▁belg	-4755
▁likely	-4756
▁mrs	-4757
mitted	-4758
▁prior	-4759
gobbiaz	-4760
lumezzane	-4761
▁experiment	-4762
gobbiazanano	-4763
lim	-4764
ule	-4765
onds	-4766
▁sph	-4767
anted	-4768
▁rhyth	-4769
another	-4770
▁assemb	-4771
▁classic	-4772
▁od	-4773
around	-4774
▁contrib	-4775
▁caballero	-4776
▁ven	-4777
▁entr	-4778
idence	-4779
▁booze	-4780
▁money	-4781
▁5%	-4782
/2001	-4783
▁citiz	-4784
▁deput	-4785
▁claimed	-4786
iat	-4787
set	-4788
akar	-4789
▁2–0	-4790
▁iaf	-4791
engle	-4792
▁1847	-4793
▁flew	-4794
▁move	-4795
▁parks	-4796
zo	-4797
▁pick	-4798
▁shield	-4799
▁airline	-4800
▁remains	-4801
▁featuring	-4802
▁derbyshire	-4803
jet	-4804
▁hap	-4805
▁votes	-4806
▁parking	-4807
▁studies	-4808
vb	-4809
▁0.4	-4810
▁22,	-4811
▁broad	-4812
▁ultim	-4813
▁reflects	-4814
▁lime	-4815
▁pier	-4816
▁wind	-4817
▁beach	-4818
▁texture	-4819
▁seasoned	-4820
team	-4821
▁alba	-4822
▁imag	-4823
▁soon	-4824
ingred	-4825
▁shortly	-4826
▁industry	-4827
ingredients	-4828
▁mainingredients	-4829
oln	-4830
▁diss	-4831
▁kais	-4832
▁colmore	-4833
▁pianist	-4834
▁linc	-4835
▁poss	-4836
▁appearance	-4837
▁astronomers	-4838
unte	-4839
▁23,	-4840
▁apo	-4841
phalt	-4842
▁here	-4843
▁wilder	-4844
▁asphalt	-4845
▁lincoln	-4846
▁volunte	-4847
elly	-4848
▁artic	-4849
▁della	-4850
▁garden	-4851
cho	-4852
▁hy	-4853
elli	-4854
▁haw	-4855
apsis	-4856
▁apoapsis	-4857
▁characters	-4858
▁particularly	-4859
peh	-4860
cibo	-4861
▁tel	-4862
▁iran	-4863
ubakar	-4864
▁daily	-4865
▁werder	-4866
▁arecibo	-4867
▁gro	-4868
▁tok	-4869
▁viol	-4870
▁enough	-4871
▁francisco	-4872
eem	-4873
▁ens	-4874
▁tre	-4875
▁2003	-4876
▁stam	-4877
▁heart	-4878
▁walls	-4879
batagor	-4880
sr	-4881
▁phys	-4882
▁tempeh	-4883
javanese	-4884
▁schools	-4885
▁overall	-4886
do	-4887
▁9.	-4888
▁1.3	-4889
▁plat	-4890
▁akeem	-4891
▁cesena	-4892
▁change	-4893
▁compar	-4894
▁foreign	-4895
▁uns	-4896
period	-4897
▁compon	-4898
▁brothers	-4899
▁democrat	-4900
▁constitut	-4901
▁activities	-4902
kn	-4903
iop	-4904
▁(8	-4905
hist	-4906
sabin	-4907
▁extern	-4908
12	-4909
ermo	-4910
▁tan	-4911
between	-4912
▁explor	-4913
▁really	-4914
▁consulting	-4915
▁references	-4916
▁grandfather	-4917
▁performance	-4918
–9	-4919
nov	-4920
▁bc	-4921
aved	-4922
onic	-4923
urer	-4924
▁mvp	-4925
'.","	-4926
early	-4927
iable	-4928
-4	-4929
occia	-4930
▁wasn	-4931
▁trump	-4932
▁coloccia	-4933
ostin	-4934
▁manchester	-4935
▁jun	-4936
chest	-4937
▁beng	-4938
▁johan	-4939
▁paper	-4940
▁uttar	-4941
▁finally	-4942
pak	-4943
lied	-4944
uments	-4945
▁investment	-4946
2),	-4947
▁bast	-4948
▁convention	-4949
▁constitution	-4950
264	-4951
che	-4952
hamb	-4953
▁crew	-4954
▁feel	-4955
hambra	-4956
▁awards	-4957
▁stated	-4958
▁influence	-4959
–4	-4960
rete	-4961
▁fast	-4962
igan	-4963
▁1987	-4964
▁growing	-4965
▁qualified	-4966
▁alternative	-4967
▁astronomical	-4968
▁(11	-4969
▁conv	-4970
angola	-4971
iza	-4972
▁tv	-4973
▁1924,	-4974
▁schol	-4975
▁mackerel	-4976
▁carr	-4977
▁salad	-4978
▁palace	-4979
▁ranking	-4980
▁supported	-4981
jamin	-4982
origin	-4983
▁sunday	-4984
▁proposed	-4985
▁jon	-4986
▁arem	-4987
▁senior	-4988
▁process	-4989
albert	-4990
alisco	-4991
▁fortress	-4992
▁submarine	-4993
disc	-4994
▁range	-4995
irement	-4996
▁houses	-4997
▁palermo	-4998
▁benjamin	-4999
ript	-5000
turner	-5001
▁freed	-5002
▁favour	-5003
▁friday	-5004
▁prepared	-5005
ee	-5006
▁9,	-5007
esco	-5008
▁lie	-5009
▁ruk	-5010
▁1965	-5011
▁rukmini	-5012
▁numberof	-5013
originally	-5014
lington	-5015
▁formation	-5016
,'	-5017
▁multi	-5018
▁contrast	-5019
amid	-5020
▁und	-5021
▁audi	-5022
▁cave	-5023
▁roof	-5024
▁emerg	-5025
▁recon	-5026
▁chopped	-5027
▁towards	-5028
-21	-5029
▁cho	-5030
▁extens	-5031
▁swedish	-5032
▁consecutive	-5033
aga	-5034
ems	-5035
▁sack	-5036
otland	-5037
▁figures	-5038
enge	-5039
▁exped	-5040
agn	-5041
▁cas	-5042
inger	-5043
▁bott	-5044
▁quin	-5045
▁albin	-5046
▁weight	-5047
▁mathematis	-5048
additionally	-5049
igi	-5050
▁simp	-5051
friend	-5052
▁negra	-5053
▁retail	-5054
▁describes	-5055
above	-5056
phere	-5057
▁pena	-5058
▁stew	-5059
▁binary	-5060
▁stamford	-5061
▁musicians	-5062
λα	-5063
roc	-5064
amples	-5065
▁2003,	-5066
▁remov	-5067
▁longest	-5068
▁fd	-5069
icar	-5070
▁ink	-5071
▁lay	-5072
aught	-5073
aware	-5074
elsea	-5075
▁grav	-5076
▁exhib	-5077
adisham	-5078
▁chelsea	-5079
▁dishvar	-5080
▁dishvariation	-5081
▁plas	-5082
abradab	-5083
andoned	-5084
▁vincent	-5085
thed	-5086
▁dial	-5087
market	-5088
▁restrict	-5089
▁authority	-5090
mal	-5091
▁cow	-5092
▁hir	-5093
▁meyer	-5094
▁martyr	-5095
▁reform	-5096
▁colonel	-5097
▁theatre	-5098
▁recently	-5099
▁blackpool	-5100
sm	-5101
oul	-5102
adal	-5103
list	-5104
▁1927	-5105
▁male	-5106
agonal	-5107
ulsion	-5108
▁coord	-5109
players	-5110
▁immedi	-5111
▁investig	-5112
▁minangkabau	-5113
▁participated	-5114
fifa	-5115
ivid	-5116
itled	-5117
▁anti	-5118
▁ball	-5119
ansion	-5120
ournam	-5121
ividual	-5122
▁castle	-5123
▁tournam	-5124
▁entrance	-5125
▁playoffs	-5126
▁individual	-5127
▁paraguayan	-5128
▁ple	-5129
▁sale	-5130
▁bronze	-5131
▁busiest	-5132
fall	-5133
idad	-5134
imet	-5135
▁sent	-5136
▁caused	-5137
▁mortar	-5138
roke	-5139
▁elev	-5140
▁abbrev	-5141
▁valley	-5142
lud	-5143
6063	-5144
▁bbq	-5145
▁blog	-5146
▁tama	-5147
▁moist	-5148
▁views	-5149
▁toward	-5150
▁martyrs	-5151
▁piazzia	-5152
▁ly	-5153
iron	-5154
time	-5155
▁tar	-5156
▁crit	-5157
▁domes	-5158
▁little	-5159
urements	-5160
▁gallery	-5161
▁permanent	-5162
▁expedition	-5163
▁experience	-5164
count	-5165
▁table	-5166
▁dynamo	-5167
▁flower	-5168
▁improve	-5169
▁leaders	-5170
-10	-5171
▁1973	-5172
▁adare	-5173
▁carbon	-5174
▁captain	-5175
▁coordin	-5176
▁nomination	-5177
▁retirement	-5178
.10	-5179
▁29,	-5180
▁getty	-5181
▁fitted	-5182
▁guadal	-5183
▁entertain	-5184
▁gettysburg	-5185
▁cry	-5186
▁wed	-5187
▁recording	-5188
sour	-5189
arròs	-5190
▁unex	-5191
▁anton	-5192
▁fench	-5193
▁rating	-5194
▁township	-5195
▁fenchurch	-5196
mos	-5197
top	-5198
▁argentine	-5199
organ	-5200
▁cele	-5201
▁1944,	-5202
▁lands	-5203
mingham	-5204
olition	-5205
▁unique	-5206
▁jalisco	-5207
▁birmingham	-5208
▁historical	-5209
▁restrictions	-5210
buzz	-5211
▁1826	-5212
▁minim	-5213
▁honour	-5214
▁frederic	-5215
ka	-5216
ál	-5217
quir	-5218
▁ending	-5219
business	-5220
▁±	-5221
pop	-5222
▁pon	-5223
ivity	-5224
▁noted	-5225
▁share	-5226
▁shoot	-5227
▁bridge	-5228
▁officer	-5229
▁williams	-5230
48	-5231
–8	-5232
nor	-5233
inum	-5234
▁bal	-5235
olled	-5236
▁dried	-5237
ody	-5238
ores	-5239
▁ins	-5240
ajara	-5241
▁gone	-5242
encing	-5243
▁indoor	-5244
▁starch	-5245
▁thirty	-5246
▁athletic	-5247
▁honorary	-5248
▁confirmed	-5249
24	-5250
▁stöger	-5251
▁dialect	-5252
27	-5253
ady	-5254
main	-5255
▁rio	-5256
▁closer	-5257
▁demise	-5258
aret	-5259
izing	-5260
▁1923	-5261
▁1999,	-5262
▁colum	-5263
▁concern	-5264
▁surrounded	-5265
').	-5266
eur	-5267
uga	-5268
▁dat	-5269
green	-5270
▁loyal	-5271
rabbiata	-5272
▁albinia	-5273
▁briefly	-5274
▁opponents	-5275
eon	-5276
isie	-5277
thin	-5278
aring	-5279
▁maxim	-5280
▁thrust	-5281
▁editors	-5282
▁supposed	-5283
37	-5284
▁if	-5285
bour	-5286
pri	-5287
then	-5288
▁som	-5289
aldrin	-5290
▁horse	-5291
western	-5292
▁rebell	-5293
▁animals	-5294
▁alhambra	-5295
lers	-5296
▁guin	-5297
▁doors	-5298
▁smashed	-5299
▁geograph	-5300
.(	-5301
sa	-5302
▁16.	-5303
▁pay	-5304
abama	-5305
▁1901	-5306
▁clin	-5307
▁snow	-5308
entially	-5309
▁deliver	-5310
▁problems	-5311
▁guadalajara	-5312
▁orbitalperiod	-5313
put	-5314
▁pin	-5315
which	-5316
▁cups	-5317
▁scene	-5318
winning	-5319
emi	-5320
iad	-5321
▁2012.	-5322
▁spice	-5323
▁shapes	-5324
▁softer	-5325
▁stanley	-5326
▁wrapped	-5327
▁friendly	-5328
▁tradition	-5329
ps	-5330
onia	-5331
▁1966	-5332
▁1991	-5333
▁2016.	-5334
▁longer	-5335
▁professor	-5336
▁frequently	-5337
▁recreation	-5338
agnoli	-5339
▁baths	-5340
▁pasta	-5341
▁address	-5342
mil	-5343
érie	-5344
▁luc	-5345
▁firm	-5346
eonato	-5347
▁2007.	-5348
▁drugs	-5349
▁offal	-5350
▁série	-5351
▁vince	-5352
▁looking	-5353
▁amsterdam	-5354
▁campeonato	-5355
▁huntington	-5356
cr	-5357
kw	-5358
▁hp	-5359
ichi	-5360
▁boy	-5361
▁hal	-5362
final	-5363
selves	-5364
▁2003.	-5365
▁burns	-5366
▁fleet	-5367
kwetiau	-5368
▁coronet	-5369
▁assistant	-5370
▁themselves	-5371
▁ig	-5372
▁fat	-5373
▁1974	-5374
▁harr	-5375
▁plot	-5376
aceous	-5377
thedral	-5378
▁celebr	-5379
▁working	-5380
▁cathedral	-5381
▁carbonaceous	-5382
run	-5383
asant	-5384
▁silver	-5385
▁gaussia	-5386
▁tenants	-5387
▁salvador	-5388
▁households	-5389
.9	-5390
folk	-5391
ataán	-5392
centr	-5393
▁rece	-5394
iapsis	-5395
▁2002,	-5396
▁agnes	-5397
▁pillar	-5398
binignit	-5399
▁erected	-5400
▁creation	-5401
▁guinataán	-5402
▁periapsis	-5403
▁ड	-5404
▁hindi	-5405
▁concentr	-5406
▁elements	-5407
alus	-5408
elle	-5409
▁1957	-5410
▁1971	-5411
▁archae	-5412
▁colors	-5413
▁madrid	-5414
▁becomes	-5415
▁abubakar	-5416
irk	-5417
lee	-5418
▁1964	-5419
▁sang	-5420
▁1634:	-5421
▁broth	-5422
▁starostin	-5423
ste	-5424
▁track	-5425
▁ariane	-5426
▁alkmaar	-5427
▁attract	-5428
▁diamond	-5429
▁external	-5430
▁independent	-5431
▁6.	-5432
▁coal	-5433
▁coop	-5434
▁sans	-5435
▁tick	-5436
▁pillarless	-5437
iter	-5438
annel	-5439
▁anch	-5440
▁iras	-5441
▁quite	-5442
▁urban	-5443
▁divided	-5444
▁believed	-5445
sec	-5446
▁$1	-5447
mann	-5448
stage	-5449
▁suit	-5450
▁1923,	-5451
▁owners	-5452
▁protot	-5453
▁channel	-5454
▁remainder	-5455
▁uncertain	-5456
▁josé	-5457
▁eagle	-5458
▁detail	-5459
▁estate	-5460
november	-5461
dav	-5462
▁1–0	-5463
ández	-5464
▁gufa	-5465
engine	-5466
▁tokyo	-5467
▁antares	-5468
▁without	-5469
▁harrison	-5470
▁mesa	-5471
▁woman	-5472
▁dancer	-5473
▁bapt	-5474
▁vand	-5475
auburn	-5476
ibility	-5477
▁prototype	-5478
▁ta	-5479
tegr	-5480
ached	-5481
olong	-5482
orter	-5483
▁entry	-5484
▁coated	-5485
▁showed	-5486
▁travel	-5487
▁straits	-5488
▁ceremony	-5489
▁availability	-5490
hunt	-5491
3,000	-5492
▁sell	-5493
▁alabama	-5494
▁rangers	-5495
▁approved	-5496
ni	-5497
mad	-5498
▁sago	-5499
▁hungar	-5500
▁orchest	-5501
▁1978	-5502
▁turkey	-5503
▁hardtop	-5504
▁earliest	-5505
▁responsible	-5506
sky	-5507
icts	-5508
krit	-5509
▁bra	-5510
▁ton	-5511
greek	-5512
itage	-5513
▁disney	-5514
▁integr	-5515
▁baptist	-5516
▁heritage	-5517
],	-5518
bot	-5519
▁32	-5520
star	-5521
▁abd	-5522
▁mom	-5523
terior	-5524
▁manor	-5525
▁units	-5526
▁cultiv	-5527
▁invent	-5528
▁arrived	-5529
▁columns	-5530
▁exterior	-5531
▁confederacy	-5532
acs	-5533
▁1968	-5534
▁cant	-5535
▁lega	-5536
▁connected	-5537
▁constitutional	-5538
bs	-5539
igg	-5540
orf	-5541
named	-5542
▁diff	-5543
▁gour	-5544
▁owner	-5545
▁gained	-5546
▁affairs	-5547
▁sanskrit	-5548
▁efxeinoupolis	-5549
är	-5550
udd	-5551
▁qat	-5552
itter	-5553
enburg	-5554
▁concrete	-5555
▁addiction	-5556
/3	-5557
▁cart	-5558
▁earned	-5559
▁franklin	-5560
▁settlers	-5561
ando	-5562
▁ess	-5563
▁surre	-5564
iations	-5565
that	-5566
▁areas	-5567
▁issued	-5568
▁shared	-5569
▁florida	-5570
▁curitiba	-5571
▁journals	-5572
▁pas	-5573
astic	-5574
▁vanden	-5575
▁asilomar	-5576
▁difference	-5577
ante	-5578
onom	-5579
▁gur	-5580
▁mur	-5581
known	-5582
▁juan	-5583
▁prefect	-5584
▁runners	-5585
▁advanced	-5586
bi	-5587
iber	-5588
▁reun	-5589
▁nature	-5590
▁christopher	-5591
car	-5592
abad	-5593
▁die	-5594
amater	-5595
▁asked	-5596
▁plate	-5597
through	-5598
▁experi	-5599
▁thicken	-5600
▁almamater	-5601
▁а	-5602
apán	-5603
▁emb	-5604
icult	-5605
▁ered	-5606
▁gill	-5607
▁jose	-5608
▁build	-5609
▁erediv	-5610
▁filling	-5611
▁forward	-5612
▁metapán	-5613
▁breaking	-5614
▁federation	-5615
▁occultation	-5616
cla	-5617
jur	-5618
orm	-5619
wide	-5620
▁gig	-5621
aeont	-5622
▁pack	-5623
▁fifty	-5624
itation	-5625
▁crisis	-5626
▁hosted	-5627
▁palaeont	-5628
▁agreement	-5629
▁distributed	-5630
lu	-5631
indo	-5632
▁clear	-5633
▁crema	-5634
▁noodle	-5635
▁harriet	-5636
eg	-5637
anas	-5638
oria	-5639
▁300	-5640
▁wes	-5641
estle	-5642
▁wood	-5643
▁filip	-5644
▁gener	-5645
▁aspect	-5646
▁pestle	-5647
▁provides	-5648
▁valencian	-5649
kol	-5650
anging	-5651
▁acton	-5652
▁litre	-5653
▁cookery	-5654
▁albennie	-5655
▁covering	-5656
▁multiple	-5657
▁columbian	-5658
▁biographical	-5659
dim	-5660
▁nas	-5661
▁decades	-5662
ов	-5663
600	-5664
anges	-5665
▁surp	-5666
▁2006,	-5667
▁displ	-5668
attered	-5669
▁energy	-5670
▁michigan	-5671
4%	-5672
53	-5673
ан	-5674
др	-5675
ек	-5676
екс	-5677
▁ал	-5678
okal	-5679
андр	-5680
▁log	-5681
▁1937	-5682
▁алекс	-5683
▁bremen	-5684
▁carter	-5685
▁flores	-5686
▁italiana	-5687
▁abandoned	-5688
▁александр	-5689
ox	-5690
bre	-5691
pil	-5692
icky	-5693
self	-5694
vous	-5695
davad	-5696
unches	-5697
▁1851,	-5698
▁effort	-5699
▁rendez	-5700
▁defence	-5701
▁medical	-5702
▁rendezvous	-5703
▁championships	-5704
▁pyr	-5705
pokal	-5706
start	-5707
▁bilo	-5708
▁pain	-5709
▁spok	-5710
▁pyramid	-5711
▁executive	-5712
ingu	-5713
▁103	-5714
▁deb	-5715
aylor	-5716
▁1979	-5717
▁absol	-5718
▁vicia	-5719
▁circum	-5720
▁inspired	-5721
only	-5722
▁(17	-5723
ubbio	-5724
▁content	-5725
▁greater	-5726
▁rebellion	-5727
▁manufactured	-5728
eme	-5729
▁5-	-5730
▁lid	-5731
▁brun	-5732
streek	-5733
▁consum	-5734
▁novels	-5735
▁argentina	-5736
▁suggested	-5737
▁zaanstreek	-5738
bn	-5739
ulpt	-5740
▁kam	-5741
burgh	-5742
▁rand	-5743
▁self	-5744
▁makeup	-5745
▁tender	-5746
▁succeeded	-5747
ba	-5748
▁aim	-5749
house	-5750
▁mine	-5751
▁ridge	-5752
▁sculpt	-5753
▁bundesliga	-5754
▁determined	-5755
▁14.	-5756
onica	-5757
german	-5758
▁offer	-5759
▁electr	-5760
▁missions	-5761
ür	-5762
bilo	-5763
uded	-5764
▁101	-5765
▁ube	-5766
fruit	-5767
▁sabá	-5768
▁eangk	-5769
▁overse	-5770
▁bananas	-5771
▁landang	-5772
▁linugaw	-5773
▁eangkuga	-5774
▁soldiers	-5775
▁jackfruit	-5776
agu	-5777
ety	-5778
sim	-5779
▁dut	-5780
▁bras	-5781
▁scotland	-5782
▁uruguayan	-5783
iel	-5784
body	-5785
▁bav	-5786
▁jac	-5787
▁alum	-5788
▁1841,	-5789
▁2015.	-5790
ression	-5791
▁female	-5792
▁safety	-5793
▁socialist	-5794
49	-5795
lc	-5796
▁dro	-5797
▁datab	-5798
▁liver	-5799
▁cathol	-5800
▁divine	-5801
▁shores	-5802
▁islamic	-5803
▁citizens	-5804
▁resulting	-5805
arab	-5806
▁aer	-5807
▁dates	-5808
▁gubbio	-5809
▁proved	-5810
▁accident	-5811
▁emulsion	-5812
▁encompass	-5813
inter	-5814
ective	-5815
▁cornell	-5816
▁launches	-5817
▁107	-5818
▁caf	-5819
▁upgr	-5820
isation	-5821
▁agency	-5822
▁credited	-5823
ya	-5824
oke	-5825
övp	-5826
▁1985	-5827
▁kind	-5828
▁charter	-5829
▁factory	-5830
▁percent	-5831
▁merch	-5832
nesburg	-5833
▁carlos	-5834
▁rhythm	-5835
▁mountain	-5836
▁johannesburg	-5837
onse	-5838
▁mál	-5839
▁rod	-5840
aarhus	-5841
inated	-5842
▁málaga	-5843
▁styles	-5844
▁yellow	-5845
▁rostock	-5846
▁selling	-5847
▁alongside	-5848
88	-5849
▁gul	-5850
▁1988	-5851
▁styl	-5852
taining	-5853
▁andrews	-5854
▁outside	-5855
▁shipping	-5856
▁organization	-5857
aust	-5858
▁athe	-5859
▁shop	-5860
▁reserve	-5861
▁required	-5862
cz	-5863
mend	-5864
russ	-5865
▁gas	-5866
▁giant	-5867
▁simply	-5868
▁organized	-5869
▁administration	-5870
–3	-5871
mid	-5872
ithe	-5873
balls	-5874
▁kids	-5875
▁vent	-5876
▁costa	-5877
▁platter	-5878
▁flowering	-5879
▁populated	-5880
▁interception	-5881
▁pu	-5882
alty	-5883
cend	-5884
▁peak	-5885
stract	-5886
▁europ	-5887
▁abstract	-5888
▁divisione	-5889
▁universities	-5890
1.5	-5891
▁dun	-5892
▁reve	-5893
▁silic	-5894
▁length	-5895
▁taylor	-5896
▁setting	-5897
ss	-5898
▁$2	-5899
▁sr	-5900
▁vfl	-5901
elesc	-5902
umber	-5903
▁fuel	-5904
▁twin	-5905
▁1862,	-5906
▁telesc	-5907
▁dismiss	-5908
▁rebounds	-5909
enza	-5910
▁avenue	-5911
▁olbers	-5912
arrabbiata	-5913
fbau	-5914
stic	-5915
▁1949	-5916
▁gate	-5917
▁aufbau	-5918
albennie	-5919
▁marriott	-5920
▁occupied	-5921
▁recovery	-5922
ym	-5923
includ	-5924
▁accord	-5925
▁brigade	-5926
▁internet	-5927
▁meatballs	-5928
▁participating	-5929
iar	-5930
cell	-5931
▁benef	-5932
▁labor	-5933
▁metal	-5934
▁campus	-5935
ova	-5936
▁flet	-5937
▁floss	-5938
▁accept	-5939
▁madison	-5940
▁subject	-5941
▁accompan	-5942
▁fletcher	-5943
▁contribut	-5944
▁everything	-5945
tis	-5946
ietta	-5947
▁vend	-5948
erical	-5949
▁prima	-5950
▁parker	-5951
▁sporting	-5952
▁romanesco	-5953
▁stylistic	-5954
▁(21	-5955
▁ord	-5956
bridge	-5957
▁applied	-5958
▁contain	-5959
▁freedom	-5960
24,	-5961
usion	-5962
▁cream	-5963
▁mountains	-5964
▁regularly	-5965
adel	-5966
▁tournament	-5967
▁investigation	-5968
vi	-5969
tended	-5970
▁value	-5971
▁seattle	-5972
▁compared	-5973
▁tamarind	-5974
▁collector	-5975
▁stylisticorigin	-5976
/28	-5977
room	-5978
▁20,	-5979
spart	-5980
▁albu	-5981
▁mark	-5982
▁tiles	-5983
mentary	-5984
▁visited	-5985
▁albuquerque	-5986
des	-5987
mass	-5988
▁keep	-5989
▁basic	-5990
▁solar	-5991
▁depend	-5992
▁combined	-5993
▁businesses	-5994
▁propellant	-5995
▁progressive	-5996
▁cou	-5997
▁phr	-5998
ifted	-5999
▁35,000	-6000
▁galile	-6001
▁holding	-6002
▁weather	-6003
acre	-6004
pura	-6005
▁ken	-6006
istan	-6007
▁1976	-6008
▁path	-6009
alusia	-6010
▁smith	-6011
▁foster	-6012
▁statist	-6013
▁concerts	-6014
▁database	-6015
▁entitled	-6016
▁exercise	-6017
0%	-6018
▁−7	-6019
stir	-6020
▁10.31	-6021
ganymed	-6022
▁hotels	-6023
])	-6024
akron	-6025
alass	-6026
▁europa	-6027
▁temper	-6028
▁alderney	-6029
▁sundanese	-6030
▁telescope	-6031
▁日	-6032
vec	-6033
▁日本	-6034
▁sime	-6035
marten	-6036
▁words	-6037
▁pravec	-6038
▁granada	-6039
sub	-6040
odge	-6041
agnes	-6042
▁rise	-6043
▁save	-6044
▁trying	-6045
▁descend	-6046
67	-6047
▁ib	-6048
erek	-6049
chure	-6050
▁1959	-6051
▁figner	-6052
▁brochure	-6053
wil	-6054
allest	-6055
▁effic	-6056
▁firms	-6057
▁oakland	-6058
▁activity	-6059
▁languages	-6060
';	-6061
die	-6062
omin	-6063
▁1849,	-6064
▁finds	-6065
▁predomin	-6066
07)	-6067
fron	-6068
▁vac	-6069
▁lake	-6070
planet	-6071
▁bened	-6072
tallest	-6073
tenance	-6074
▁airfield	-6075
▁interior	-6076
▁entertainment	-6077
”.	-6078
▁37	-6079
scar	-6080
▁bob	-6081
▁pond	-6082
▁tong	-6083
▁steph	-6084
alfredo	-6085
▁winners	-6086
▁superman	-6087
▁relegation	-6088
mel	-6089
zio	-6090
ogson	-6091
▁migr	-6092
alassa	-6093
▁(107)	-6094
▁1941.	-6095
▁1954,	-6096
▁cause	-6097
000,000	-6098
▁billion	-6099
▁nothing	-6100
▁mechanics	-6101
ño	-6102
ντ	-6103
▁gaz	-6104
▁magnet	-6105
▁belgium	-6106
▁fillings	-6107
▁alle	-6108
▁done	-6109
▁vice	-6110
▁santa	-6111
anaheim	-6112
▁calcio	-6113
▁himself	-6114
▁circumst	-6115
acing	-6116
antly	-6117
isper	-6118
▁dock	-6119
▁sumac	-6120
▁cityjet	-6121
▁26,	-6122
icial	-6123
▁gulf	-6124
▁info	-6125
▁claims	-6126
▁corporate	-6127
▁departure	-6128
▁azerbaijani	-6129
ige	-6130
dest	-6131
event	-6132
▁film	-6133
▁wave	-6134
fourth	-6135
▁section	-6136
▁diagonal	-6137
eventually	-6138
▁expansion	-6139
▁celebrated	-6140
ulia	-6141
▁ash	-6142
▁aceh	-6143
▁hang	-6144
▁iulia	-6145
▁monoc	-6146
▁wales	-6147
▁warning	-6148
▁articles	-6149
▁educated	-6150
▁releasing	-6151
▁abbreviation	-6152
club	-6153
▁12.	-6154
▁jok	-6155
▁sviz	-6156
▁2006.	-6157
▁legal	-6158
▁underc	-6159
▁drafted	-6160
▁planned	-6161
▁containing	-6162
▁transmission	-6163
1/	-6164
enz	-6165
uli	-6166
rapes	-6167
▁1856	-6168
▁barrow	-6169
▁corner	-6170
▁finger	-6171
▁grapes	-6172
▁titled	-6173
▁presence	-6174
▁combination	-6175
▁institution	-6176
▁circumstances	-6177
can	-6178
▁39	-6179
▁bib	-6180
▁1910	-6181
martin	-6182
▁blood	-6183
▁geard	-6184
atlantic	-6185
▁revenue	-6186
8-	-6187
mur	-6188
.200	-6189
▁too	-6190
iting	-6191
▁graz	-6192
▁palm	-6193
▁susp	-6194
▁supply	-6195
ña	-6196
]),	-6197
ami	-6198
▁ern	-6199
▁pul	-6200
▁0.16	-6201
yellow	-6202
▁troph	-6203
iazione	-6204
ologica	-6205
▁overseas	-6206
▁polonica	-6207
▁franchise	-6208
▁occupation	-6209
▁palaeontologica	-6210
acta	-6211
▁env	-6212
▁jama	-6213
▁mosa	-6214
▁basis	-6215
▁scheme	-6216
▁sanderson	-6217
bear	-6218
orey	-6219
▁mah	-6220
▁vase	-6221
because	-6222
▁sevent	-6223
▁svizzer	-6224
▁receiving	-6225
tel	-6226
war	-6227
▁[ˈ	-6228
wilder	-6229
▁1881.	-6230
▁score	-6231
▁staff	-6232
▁wagon	-6233
▁bought	-6234
▁kaiser	-6235
▁losses	-6236
▁benedict	-6237
▁electrical	-6238
ibly	-6239
ties	-6240
▁fab	-6241
▁rut	-6242
ffalo	-6243
urity	-6244
▁karl	-6245
▁spir	-6246
umbled	-6247
▁advoc	-6248
▁crumbled	-6249
▁surrender	-6250
rec	-6251
▁adol	-6252
▁lipp	-6253
▁trin	-6254
▁rival	-6255
▁pogson	-6256
▁challeng	-6257
▁champion	-6258
▁possibly	-6259
▁suspension	-6260
5%	-6261
▁os	-6262
▁luigi	-6263
▁figure	-6264
cal	-6265
itu	-6266
usi	-6267
ites	-6268
iture	-6269
▁cott	-6270
▁fern	-6271
▁monk	-6272
▁arbor	-6273
▁amounts	-6274
▁penalty	-6275
▁bringing	-6276
▁reference	-6277
▁ا	-6278
aam	-6279
▁oy	-6280
▁34.	-6281
▁1945	-6282
▁stuck	-6283
▁easily	-6284
▁buffalo	-6285
▁dropped	-6286
▁svizzera	-6287
▁youngest	-6288
▁università	-6289
idro	-6290
▁kfc	-6291
▁1938	-6292
▁copa	-6293
▁hell	-6294
▁risk	-6295
▁agent	-6296
▁achiev	-6297
▁scales	-6298
▁grilled	-6299
etch	-6300
▁4.3-	-6301
bearer	-6302
▁lines	-6303
▁precip	-6304
▁concert	-6305
-11	-6306
ecor	-6307
▁aids	-6308
▁mimi	-6309
▁pont	-6310
etting	-6311
rester	-6312
storey	-6313
▁imper	-6314
unction	-6315
▁arrive	-6316
▁davidson	-6317
▁students	-6318
▁forrester	-6319
▁presidential	-6320
42	-6321
92	-6322
iya	-6323
akov	-6324
dess	-6325
▁amph	-6326
▁jean	-6327
▁italia	-6328
▁padang	-6329
▁presid	-6330
anderson	-6331
▁directly	-6332
ía	-6333
▁13.	-6334
ianak	-6335
jambi	-6336
month	-6337
▁carn	-6338
▁gain	-6339
▁terr	-6340
andria	-6341
▁1905.	-6342
russian	-6343
▁johore	-6344
▁minang	-6345
▁airbase	-6346
▁trinidad	-6347
▁villiers	-6348
▁pontianak	-6349
▁eredivisie	-6350
▁sandwiches	-6351
omm	-6352
▁map	-6353
front	-6354
ising	-6355
▁hern	-6356
▁stop	-6357
▁equator	-6358
▁teacher	-6359
▁trumpet	-6360
agl	-6361
eris	-6362
offs	-6363
▁(18	-6364
▁ley	-6365
▁rout	-6366
▁texans	-6367
alcatraz	-6368
▁imagine	-6369
▁doctoral	-6370
▁initially	-6371
▁indicating	-6372
▁maintained	-6373
▁experienced	-6374
ears	-6375
reme	-6376
▁bag	-6377
april	-6378
inces	-6379
stream	-6380
umakov	-6381
▁henry	-6382
▁modeled	-6383
▁unified	-6384
▁conducted	-6385
▁photograph	-6386
▁competition	-6387
▁occasionally	-6388
amic	-6389
barn	-6390
eway	-6391
roft	-6392
roma	-6393
▁dam	-6394
umble	-6395
▁suzy	-6396
▁2004.	-6397
▁carri	-6398
▁faith	-6399
▁indie	-6400
batchoy	-6401
▁afonso	-6402
▁franco	-6403
▁renier	-6404
▁bodeway	-6405
pronounced	-6406
▁component	-6407
▁undercroft	-6408
.:	-6409
init	-6410
▁12,	-6411
▁cax	-6412
▁1948	-6413
▁1981	-6414
▁furn	-6415
▁comic	-6416
▁drive	-6417
▁meant	-6418
▁caxide	-6419
▁combat	-6420
▁secondary	-6421
▁scholastic	-6422
tt	-6423
emp	-6424
▁rs	-6425
ieve	-6426
▁ska	-6427
▁wel	-6428
antio	-6429
ricts	-6430
▁adam	-6431
▁adopt	-6432
antwerp	-6433
▁colony	-6434
▁fumble	-6435
▁guruli	-6436
▁diverse	-6437
▁districts	-6438
▁interests	-6439
▁coordinates	-6440
▁interceptions	-6441
ío	-6442
boy	-6443
▁sod	-6444
▁1924	-6445
▁naut	-6446
▁repe	-6447
▁minced	-6448
▁banking	-6449
▁locally	-6450
▁maximum	-6451
▁partners	-6452
▁politics	-6453
▁maintenance	-6454
▁precipitation	-6455
gn	-6456
ape	-6457
uate	-6458
.","1	-6459
sweet	-6460
▁boost	-6461
▁grated	-6462
▁tholen	-6463
▁furniture	-6464
▁inaugural	-6465
illo	-6466
▁25,	-6467
▁250	-6468
▁1994	-6469
▁grey	-6470
▁raif	-6471
assist	-6472
▁signing	-6473
▁existing	-6474
▁improvements	-6475
**	-6476
long	-6477
uces	-6478
▁(2.	-6479
tegun	-6480
aggett	-6481
▁guard	-6482
▁rising	-6483
▁rounds	-6484
▁nigerian	-6485
▁retaining	-6486
bro	-6487
–20	-6488
rotr	-6489
ustr	-6490
▁ago	-6491
▁hub	-6492
murry	-6493
▁idea	-6494
▁leed	-6495
▁roma	-6496
rotrin	-6497
▁crack	-6498
▁marvel	-6499
▁simeiz	-6500
▁mcmurry	-6501
▁bavarian	-6502
▁nautical	-6503
▁elevation	-6504
▁petrotrin	-6505
sg	-6506
alin	-6507
mish	-6508
▁decca	-6509
▁settlement	-6510
adow	-6511
▁(201	-6512
▁1920	-6513
▁fest	-6514
▁trim	-6515
keeper	-6516
ommend	-6517
▁asunc	-6518
▁lights	-6519
▁leagues	-6520
▁ordered	-6521
▁broadcast	-6522
▁recommend	-6523
▁120	-6524
▁1931	-6525
▁bert	-6526
▁scand	-6527
▁bionico	-6528
▁marketed	-6529
▁suggesting	-6530
▁congressional	-6531
▁mathematisches	-6532
▁eer	-6533
▁dead	-6534
▁fine	-6535
▁phon	-6536
▁sort	-6537
▁lazio	-6538
▁patri	-6539
▁twice	-6540
essions	-6541
analysis	-6542
continental	-6543
▁electronic	-6544
▁householder	-6545
▁hein	-6546
▁vine	-6547
▁grove	-6548
▁brakes	-6549
mc	-6550
sy	-6551
lix	-6552
etti	-6553
▁181	-6554
▁tenth	-6555
▁contem	-6556
▁beating	-6557
▁physics	-6558
▁advances	-6559
▁monaster	-6560
▁patriots	-6561
▁aidastella	-6562
otr	-6563
iary	-6564
ishes	-6565
▁olis	-6566
▁doing	-6567
▁lotus	-6568
▁piotr	-6569
▁andrew	-6570
▁spoken	-6571
▁housing	-6572
▁monastery	-6573
▁haz	-6574
▁kaz	-6575
ustín	-6576
▁hers	-6577
histor	-6578
▁1995,	-6579
▁stroke	-6580
▁palaces	-6581
▁substitute	-6582
▁era	-6583
▁stu	-6584
▁1001	-6585
▁link	-6586
isters	-6587
▁arroz	-6588
▁curve	-6589
▁results	-6590
▁employed	-6591
▁equatorial	-6592
ör	-6593
001	-6594
iah	-6595
pol	-6596
eton	-6597
rams	-6598
grand	-6599
▁items	-6600
▁eerste	-6601
▁carrier	-6602
▁extension	-6603
cda	-6604
xual	-6605
encia	-6606
▁pure	-6607
▁seas	-6608
lymouth	-6609
cylinder	-6610
▁flemish	-6611
▁airborne	-6612
▁creative	-6613
songwriter	-6614
▁concluded	-6615
▁predecess	-6616
▁represented	-6617
▁certification	-6618
cam	-6619
▁(200	-6620
▁1918	-6621
▁goth	-6622
▁lots	-6623
▁sull	-6624
▁assum	-6625
▁vigor	-6626
▁secretly	-6627
ci	-6628
don	-6629
had	-6630
tha	-6631
brit	-6632
even	-6633
rick	-6634
▁28.	-6635
▁agr	-6636
▁bloc	-6637
▁guid	-6638
▁spot	-6639
icians	-6640
strong	-6641
▁oscar	-6642
.","103	-6643
▁debate	-6644
▁ceremon	-6645
▁projects	-6646
fam	-6647
size	-6648
veral	-6649
▁gaul	-6650
▁beans	-6651
▁eggpl	-6652
▁paved	-6653
▁module	-6654
▁register	-6655
▁emergency	-6656
▁subs	-6657
ication	-6658
char	-6659
▁fun	-6660
▁earn	-6661
▁hund	-6662
▁volks	-6663
▁expand	-6664
▁hundred	-6665
▁commemor	-6666
▁transient	-6667
▁mechanical	-6668
-9	-6669
35	-6670
phia	-6671
▁mir	-6672
raven	-6673
▁liqu	-6674
▁walk	-6675
ception	-6676
adelphia	-6677
▁complete	-6678
▁guidance	-6679
▁returning	-6680
▁philadelphia	-6681
arted	-6682
▁card	-6683
listen	-6684
▁stone	-6685
ensions	-6686
▁couple	-6687
▁illustr	-6688
▁student	-6689
▁accommod	-6690
▁competitions	-6691
.7	-6692
▁ş	-6693
-56	-6694
pite	-6695
▁café	-6696
▁viag	-6697
▁1999.	-6698
▁atmos	-6699
▁prefix	-6700
▁despite	-6701
▁filipino	-6702
▁installed	-6703
▁rotational	-6704
tim	-6705
muth	-6706
worth	-6707
▁chem	-6708
▁none	-6709
▁1936.	-6710
▁edwin	-6711
▁gross	-6712
▁invol	-6713
▁baltic	-6714
▁boiled	-6715
▁defend	-6716
▁workers	-6717
▁admitted	-6718
66	-6719
uh	-6720
akh	-6721
6391	-6722
toft	-6723
unei	-6724
▁bol	-6725
▁ebel	-6726
▁jelly	-6727
▁print	-6728
▁brunei	-6729
▁charge	-6730
▁racial	-6731
standard	-6732
▁randers	-6733
▁amphithe	-6734
▁ebeltoft	-6735
▁imperial	-6736
▁institut	-6737
▁monocacy	-6738
▁synchron	-6739
▁etymology	-6740
▁ceremonies	-6741
▁archaeology	-6742
rill	-6743
berto	-6744
▁punk	-6745
▁coppa	-6746
▁flint	-6747
spartak	-6748
▁isidro	-6749
▁spirit	-6750
▁subsid	-6751
fficient	-6752
▁iranian	-6753
▁moments	-6754
▁challenge	-6755
▁operation	-6756
9%	-6757
such	-6758
▁taj	-6759
▁1914	-6760
▁eras	-6761
▁sail	-6762
▁spac	-6763
▁trib	-6764
astern	-6765
▁brand	-6766
▁bhajji	-6767
▁conson	-6768
asilomar	-6769
▁bertram	-6770
▁falcons	-6771
▁seconds	-6772
▁chemical	-6773
9)	-6774
achel	-6775
where	-6776
▁1838	-6777
▁1950.	-6778
ifically	-6779
president	-6780
▁richardson	-6781
▁amphitheatre	-6782
▁transliteration	-6783
pr	-6784
°.	-6785
ila	-6786
▁fk	-6787
ucle	-6788
oleum	-6789
▁1967	-6790
▁narr	-6791
rising	-6792
▁deputy	-6793
▁lepura	-6794
▁strict	-6795
▁missing	-6796
▁continue	-6797
▁delaware	-6798
▁petroleum	-6799
);	-6800
ελ	-6801
city	-6802
ocado	-6803
power	-6804
ounder	-6805
uccess	-6806
▁cannot	-6807
▁respective	-6808
-31	-6809
fig	-6810
▁22.	-6811
▁ohl	-6812
about	-6813
▁logo	-6814
▁asher	-6815
▁moving	-6816
▁plymouth	-6817
▁wolfsburg	-6818
cc	-6819
0°)	-6820
aft	-6821
izo	-6822
▁cel	-6823
▁lok	-6824
▁aged	-6825
▁sage	-6826
▁coupe	-6827
▁mentions	-6828
▁response	-6829
▁burlington	-6830
▁goalkeeper	-6831
▁80	-6832
▁109	-6833
▁afc	-6834
▁giants	-6835
▁mosaic	-6836
▁triang	-6837
▁examples	-6838
▁hernández	-6839
▁drum	-6840
▁rose	-6841
▁bottom	-6842
▁absolute	-6843
aza	-6844
▁15.	-6845
archy	-6846
ipped	-6847
▁dent	-6848
▁males	-6849
▁melon	-6850
▁lasted	-6851
▁achieve	-6852
▁amatrice	-6853
▁destroying	-6854
del	-6855
▁akh	-6856
osing	-6857
illing	-6858
▁profit	-6859
▁starts	-6860
▁brandon	-6861
▁underst	-6862
▁friedrich	-6863
▁agremiação	-6864
▁amatriciana	-6865
eth	-6866
rose	-6867
▁800	-6868
▁fas	-6869
▁knvb	-6870
▁lect	-6871
aretta	-6872
curves	-6873
▁2012–1	-6874
▁killed	-6875
▁crimean	-6876
▁composer	-6877
▁difficult	-6878
▁competitive	-6879
▁lightcurves	-6880
▁concentration	-6881
96	-6882
ppe	-6883
iano	-6884
±0.0	-6885
▁178	-6886
▁dal	-6887
chief	-6888
▁cham	-6889
▁hong	-6890
▁tort	-6891
▁xlix	-6892
▁athens	-6893
▁marten	-6894
▁serves	-6895
▁wanted	-6896
▁climate	-6897
▁opposition	-6898
▁significantly	-6899
▁kl	-6900
astr	-6901
desp	-6902
raham	-6903
▁amar	-6904
▁nato	-6905
▁sequ	-6906
branded	-6907
despite	-6908
▁loaned	-6909
▁trophy	-6910
▁derives	-6911
▁thrusters	-6912
▁<	-6913
owe	-6914
szy	-6915
awak	-6916
▁21,	-6917
derap	-6918
iarno	-6919
weeds	-6920
▁1935	-6921
▁1983	-6922
rapowe	-6923
▁chiefs	-6924
▁ziarno	-6925
szyderap	-6926
▁theology	-6927
▁identical	-6928
olf	-6929
iggs	-6930
▁enem	-6931
▁heat	-6932
▁arose	-6933
▁border	-6934
▁lemper	-6935
▁extreme	-6936
▁expected	-6937
▁valgobbiazanano	-6938
▁nl	-6939
icop	-6940
▁nld	-6941
iadis	-6942
until	-6943
▁1898	-6944
▁bure	-6945
▁diet	-6946
alevel	-6947
igator	-6948
actions	-6949
▁ernest	-6950
▁ethiop	-6951
▁farmer	-6952
standing	-6953
▁cottage	-6954
▁helicop	-6955
▁solution	-6956
abovethese	-6957
▁consonant	-6958
▁wildweeds	-6959
▁recordings	-6960
abovethesealevel	-6961
awks	-6962
burn	-6963
ilis	-6964
inee	-6965
rone	-6966
▁16,	-6967
▁hur	-6968
▁wing	-6969
ifying	-6970
▁pecor	-6971
▁rapid	-6972
▁replace	-6973
▁sarawak	-6974
▁pecorino	-6975
faa	-6976
march	-6977
▁stay	-6978
▁sedan	-6979
▁strik	-6980
▁threat	-6981
▁hopkins	-6982
▁spellings	-6983
▁completely	-6984
21,	-6985
▁op	-6986
▁(5.	-6987
▁1954	-6988
▁kong	-6989
▁ribs	-6990
▁1947,	-6991
▁flood	-6992
▁maine	-6993
▁nucle	-6994
century	-6995
▁butter	-6996
▁modest	-6997
▁samuel	-6998
▁nominee	-6999
▁tallest	-7000
▁windows	-7001
▁wizardry	-7002
▁partnership	-7003
-5	-7004
law	-7005
bast	-7006
ogue	-7007
▁trip	-7008
antial	-7009
▁2001.	-7010
▁pitts	-7011
mcquaid	-7012
▁handed	-7013
▁unknown	-7014
▁journalist	-7015
-76	-7016
eck	-7017
–0.	-7018
▁ts	-7019
uten	-7020
▁218	-7021
class	-7022
eland	-7023
▁akin	-7024
▁cass	-7025
iatype	-7026
▁likes	-7027
utenant	-7028
▁blanco	-7029
▁styrian	-7030
▁figneria	-7031
▁plantain	-7032
▁mediatype	-7033
▁transliter	-7034
po	-7035
alm	-7036
imed	-7037
oshi	-7038
▁kun	-7039
▁lov	-7040
▁mis	-7041
▁dani	-7042
ecraft	-7043
▁jambi	-7044
▁sebast	-7045
▁sweden	-7046
▁2017–18	-7047
▁organiz	-7048
▁sisters	-7049
▁strange	-7050
▁dunraven	-7051
▁signature	-7052
▁volunteer	-7053
▁spacecraft	-7054
mes	-7055
▁83	-7056
fort	-7057
üner	-7058
▁bim	-7059
▁wey	-7060
arkov	-7061
▁pang	-7062
▁shut	-7063
contin	-7064
pakoda	-7065
▁2021.	-7066
founded	-7067
▁knight	-7068
▁onions	-7069
▁pakoda	-7070
▁sessions	-7071
=1	-7072
oo	-7073
–5	-7074
emic	-7075
leau	-7076
elled	-7077
▁page	-7078
-12-31	-7079
ivated	-7080
▁1986)	-7081
▁adult	-7082
▁capita	-7083
▁husain	-7084
▁sticky	-7085
▁mounted	-7086
▁optional	-7087
▁workedas	-7088
▁workedat	-7089
▁2006-12-31	-7090
▁politically	-7091
ux	-7092
jan	-7093
▁reel	-7094
▁whom	-7095
ources	-7096
ucture	-7097
▁1941)	-7098
▁learn	-7099
▁guests	-7100
▁parall	-7101
▁demonym	-7102
▁infrastr	-7103
▁sections	-7104
▁resources	-7105
▁lieutenant	-7106
▁popularity	-7107
▁preventing	-7108
▁infrastructure	-7109
aids	-7110
olid	-7111
▁hil	-7112
▁10.2	-7113
▁acta	-7114
▁ahead	-7115
▁worth	-7116
▁crushed	-7117
▁consolid	-7118
short	-7119
▁dave	-7120
iology	-7121
▁milla	-7122
▁merced	-7123
▁formally	-7124
ded	-7125
urb	-7126
11),	-7127
hour	-7128
spect	-7129
▁1944	-7130
▁curb	-7131
length	-7132
▁speak	-7133
akeslee	-7134
▁prefer	-7135
▁reduce	-7136
▁destroy	-7137
▁highway	-7138
september	-7139
▁binignit	-7140
▁competes	-7141
▁snowfall	-7142
▁appearing	-7143
▁blakeslee	-7144
▁officials	-7145
▁institutions	-7146
▁runwaylength	-7147
▁mathematicians	-7148
omen	-7149
oppy	-7150
▁27.	-7151
▁lens	-7152
terdam	-7153
▁accur	-7154
▁wheels	-7155
▁rotterdam	-7156
101	-7157
hon	-7158
▁pepp	-7159
discip	-7160
mainly	-7161
▁moore	-7162
▁spend	-7163
pressed	-7164
▁muslim	-7165
▁bordered	-7166
▁predominantly	-7167
▁administrative	-7168
du	-7169
bon	-7170
ote	-7171
arat	-7172
hill	-7173
uyah	-7174
▁mig	-7175
▁yam	-7176
6063)	-7177
owned	-7178
rones	-7179
▁lord	-7180
ardozo	-7181
▁1916,	-7182
▁cuyah	-7183
▁johns	-7184
▁ramón	-7185
▁vested	-7186
▁cardozo	-7187
▁peppers	-7188
▁cuyahoga	-7189
▁regarded	-7190
▁studying	-7191
▁performing	-7192
▁/	-7193
cle	-7194
wok	-7195
prof	-7196
▁nik	-7197
▁unf	-7198
akita	-7199
along	-7200
▁2022	-7201
▁dual	-7202
▁pand	-7203
akichi	-7204
▁wheel	-7205
regular	-7206
wokerto	-7207
▁herget	-7208
▁hirano	-7209
▁precis	-7210
▁arrives	-7211
▁aspects	-7212
▁masakichi	-7213
▁activeyear	-7214
▁purwokerto	-7215
▁unexpected	-7216
▁exploration	-7217
▁predecessor	-7218
just	-7219
pena	-7220
pert	-7221
▁13,	-7222
▁alc	-7223
▁acts	-7224
▁girl	-7225
▁salt	-7226
▁1997,	-7227
▁2023.	-7228
▁deriv	-7229
▁drawn	-7230
▁shell	-7231
▁kaliber	-7232
▁pillars	-7233
▁gigantic	-7234
▁interred	-7235
▁mercedes	-7236
▁precisely	-7237
▁consolidated	-7238
bc	-7239
cost	-7240
pung	-7241
▁(60	-7242
ivals	-7243
olded	-7244
utale	-7245
mostly	-7246
▁1889,	-7247
▁folded	-7248
▁rancho	-7249
▁tepung	-7250
battered	-7251
▁females	-7252
▁approval	-7253
▁carnival	-7254
▁haputale	-7255
bef	-7256
▁ek	-7257
eded	-7258
enir	-7259
inos	-7260
prod	-7261
▁hok	-7262
asher	-7263
owing	-7264
erable	-7265
ileiro	-7266
▁(1793	-7267
▁1885)	-7268
▁polar	-7269
iography	-7270
▁opposed	-7271
▁wizards	-7272
▁architects	-7273
▁brasileiro	-7274
lad	-7275
benz	-7276
isja	-7277
uben	-7278
▁ans	-7279
▁mcg	-7280
▁ses	-7281
arrón	-7282
▁ancest	-7283
▁eccell	-7284
▁oyster	-7285
▁sesame	-7286
▁spalin	-7287
▁wolves	-7288
icharrón	-7289
▁counter	-7290
▁steuben	-7291
▁eccellenza	-7292
▁collaborated	-7293
▁distribution	-7294
-78	-7295
peop	-7296
yond	-7297
awacs	-7298
▁ucla	-7299
▁avoid	-7300
▁beyond	-7301
▁futbol	-7302
together	-7303
alexander	-7304
▁aleksand	-7305
fay	-7306
john	-7307
mand	-7308
nish	-7309
ention	-7310
▁1840,	-7311
▁1918,	-7312
▁invas	-7313
▁lafay	-7314
▁delayed	-7315
▁granted	-7316
▁mustard	-7317
▁aluminum	-7318
▁parallel	-7319
▁frederick	-7320
▁lafayette	-7321
▁industries	-7322
▁destinations	-7323
▁8-	-7324
▁buy	-7325
▁lab	-7326
▁são	-7327
heria	-7328
▁rein	-7329
▁1889.	-7330
▁behav	-7331
▁inner	-7332
▁slave	-7333
agement	-7334
▁kheria	-7335
▁nasrid	-7336
▁initial	-7337
▁intended	-7338
▁achieving	-7339
▁automatic	-7340
▁irregular	-7341
▁manufacturer	-7342
org	-7343
lived	-7344
▁emil	-7345
▁holt	-7346
▁simm	-7347
▁19156	-7348
▁ababa	-7349
▁suther	-7350
▁indexed	-7351
▁attested	-7352
▁catalogue	-7353
▁editorial	-7354
▁subsidiary	-7355
▁sutherland	-7356
5/	-7357
ek	-7358
si	-7359
ski	-7360
ков	-7361
-200	-7362
code	-7363
▁jew	-7364
arent	-7365
endas	-7366
▁outc	-7367
▁dales	-7368
running	-7369
▁duties	-7370
▁charity	-7371
▁granola	-7372
▁vinegar	-7373
▁purchasing	-7374
key	-7375
▁12-	-7376
▁jpl	-7377
▁ray	-7378
▁16.4	-7379
▁hero	-7380
incott	-7381
▁16.44	-7382
▁gauss	-7383
▁cowboy	-7384
▁newton	-7385
▁russell	-7386
▁wedding	-7387
▁relations	-7388
ée	-7389
▁1845	-7390
▁fate	-7391
▁talk	-7392
▁giving	-7393
▁jewish	-7394
▁origins	-7395
▁rutland	-7396
▁shifted	-7397
▁engineer	-7398
▁ethiopia	-7399
▁resembles	-7400
inj	-7401
ira	-7402
cour	-7403
izzy	-7404
▁60-	-7405
▁daw	-7406
▁nic	-7407
▁tud	-7408
aceae	-7409
▁math	-7410
▁1952,	-7411
▁reapp	-7412
located	-7413
▁taught	-7414
▁inaugur	-7415
▁destroyed	-7416
ios	-7417
née	-7418
rys	-7419
×63	-7420
alan	-7421
olan	-7422
áros	-7423
▁why	-7424
eless	-7425
entry	-7426
▁refu	-7427
▁yale	-7428
before	-7429
▁lakes	-7430
▁assess	-7431
▁status	-7432
▁cucumber	-7433
▁dominated	-7434
▁compressed	-7435
▁qualification	-7436
aky	-7437
▁(+	-7438
uits	-7439
▁excl	-7440
▁sust	-7441
▁1946,	-7442
▁agric	-7443
▁myster	-7444
▁apparent	-7445
▁dismissed	-7446
▁journalism	-7447
▁supporting	-7448
▁performances	-7449
3)	-7450
aip	-7451
▁rul	-7452
ilton	-7453
▁ages	-7454
▁shel	-7455
ampara	-7456
▁1,500	-7457
▁1845.	-7458
▁baked	-7459
▁bever	-7460
▁scagl	-7461
▁usual	-7462
▁pounds	-7463
▁conserv	-7464
▁chumakov	-7465
oz	-7466
acm	-7467
uro	-7468
umbu	-7469
▁gem	-7470
▁ward	-7471
cooked	-7472
▁bumbu	-7473
▁robot	-7474
▁jonath	-7475
▁kuning	-7476
▁recent	-7477
▁visual	-7478
▁environ	-7479
▁agricult	-7480
▁pleasant	-7481
▁recovered	-7482
64	-7483
sth	-7484
▁et	-7485
▁hat	-7486
▁tie	-7487
▁1953	-7488
▁aston	-7489
▁jacob	-7490
▁opponent	-7491
▁classical	-7492
▁specially	-7493
oil	-7494
▁47	-7495
ghan	-7496
isha	-7497
ackle	-7498
▁cake	-7499
▁hole	-7500
penyet	-7501
▁accla	-7502
▁covid	-7503
▁scout	-7504
▁branch	-7505
▁mcgraw	-7506
▁narrow	-7507
▁piazzi	-7508
▁trisha	-7509
▁carlene	-7510
▁inclined	-7511
▁yearwood	-7512
▁mainstream	-7513
▁statistical	-7514
▁experimental	-7515
adh	-7516
rez	-7517
▁banks	-7518
▁bengo	-7519
▁victor	-7520
▁changes	-7521
▁vendors	-7522
▁outermost	-7523
.).	-7524
afc	-7525
ser	-7526
▁70	-7527
lets	-7528
stud	-7529
▁600	-7530
▁rol	-7531
▁arab	-7532
▁bomb	-7533
▁wien	-7534
backer	-7535
▁degre	-7536
▁fields	-7537
▁studio	-7538
▁avocado	-7539
▁nuclear	-7540
▁demolition	-7541
▁linebacker	-7542
▁organizational	-7543
▁33	-7544
anton	-7545
▁plans	-7546
▁growth	-7547
▁pushed	-7548
uccessful	-7549
▁leonardo	-7550
▁surprise	-7551
▁measurements	-7552
▁unsuccessful	-7553
-80	-7554
–12	-7555
iant	-7556
▁soul	-7557
▁lokar	-7558
administr	-7559
agremiação	-7560
▁birthdate	-7561
▁cambridge	-7562
administrative	-7563
68	-7564
uez	-7565
anse	-7566
orer	-7567
outs	-7568
arest	-7569
onomy	-7570
▁1981,	-7571
obendas	-7572
▁encoun	-7573
▁fruits	-7574
▁matador	-7575
▁nigeria	-7576
▁vocalist	-7577
▁pronounced	-7578
nr	-7579
ext	-7580
una	-7581
▁sav	-7582
dutch	-7583
jarat	-7584
▁fail	-7585
▁poor	-7586
▁assets	-7587
▁hazard	-7588
▁pastor	-7589
▁predict	-7590
▁advocate	-7591
▁invasion	-7592
vo	-7593
ads	-7594
gae	-7595
six	-7596
▁es	-7597
▁pir	-7598
▁soh	-7599
1634:	-7600
south	-7601
▁news	-7602
icarus	-7603
▁1996,	-7604
▁associ	-7605
▁antioqu	-7606
▁finnish	-7607
▁rouleau	-7608
▁silicate	-7609
▁scaglione	-7610
gro	-7611
adur	-7612
▁til	-7613
▁hokk	-7614
▁rodr	-7615
▁gemini	-7616
▁puerto	-7617
▁goddess	-7618
▁reviews	-7619
including	-7620
ðr	-7621
▁66	-7622
eing	-7623
gods	-7624
ynja	-7625
▁mak	-7626
▁obl	-7627
scale	-7628
▁bark	-7629
▁cope	-7630
▁1969.	-7631
▁dodge	-7632
current	-7633
▁panthe	-7634
▁degrees	-7635
▁protest	-7636
▁sustain	-7637
▁carriers	-7638
ifications	-7639
ologically	-7640
▁orchestra	-7641
▁comparison	-7642
▁georgiadis	-7643
ird	-7644
know	-7645
level	-7646
▁mayo	-7647
▁1836.	-7648
▁1865,	-7649
▁1998.	-7650
▁delic	-7651
igneras	-7652
▁lineup	-7653
▁towers	-7654
ulations	-7655
▁tourism	-7656
▁vigneras	-7657
▁preserved	-7658
▁β	-7659
ente	-7660
▁ilo	-7661
lings	-7662
▁laid	-7663
iliate	-7664
▁glass	-7665
▁roster	-7666
▁founder	-7667
▁cassette	-7668
▁ultimate	-7669
▁histories	-7670
▁recognized	-7671
▁ultimately	-7672
▁broadcasting	-7673
41	-7674
▁va	-7675
acho	-7676
▁rig	-7677
▁sax	-7678
olith	-7679
pacho	-7680
▁yolk	-7681
aduran	-7682
extrem	-7683
▁delta	-7684
▁shops	-7685
▁injury	-7686
▁option	-7687
▁waiting	-7688
▁airports	-7689
▁clinical	-7690
▁gazpacho	-7691
▁revealed	-7692
▁extremeño	-7693
▁lippincott	-7694
extremaduran	-7695
▁recreational	-7696
▁municipalities	-7697
▁bul	-7698
▁tlx	-7699
00000	-7700
finals	-7701
▁plaza	-7702
▁ruled	-7703
ativity	-7704
▁golden	-7705
initially	-7706
▁computer	-7707
▁visiting	-7708
▁52	-7709
amat	-7710
hand	-7711
▁dos	-7712
▁scr	-7713
abelle	-7714
▁chron	-7715
ivalent	-7716
▁leaves	-7717
▁saying	-7718
▁biggest	-7719
▁compris	-7720
lik	-7721
ello	-7722
▁aur	-7723
▁eug	-7724
▁faa	-7725
▁task	-7726
▁trio	-7727
astics	-7728
▁online	-7729
▁gauliga	-7730
▁affiliate	-7731
▁armstrong	-7732
▁australia	-7733
▁suffering	-7734
▁connection	-7735
urt	-7736
eces	-7737
fast	-7738
jita	-7739
mimi	-7740
▁dre	-7741
▁vary	-7742
coming	-7743
▁1835,	-7744
▁alone	-7745
▁pieces	-7746
▁operator	-7747
▁resemble	-7748
▁obtaining	-7749
▁worldwide	-7750
bib	-7751
enos	-7752
ucks	-7753
▁1964,	-7754
▁paran	-7755
▁tools	-7756
▁iloilo	-7757
▁missed	-7758
▁spaces	-7759
▁colours	-7760
▁settled	-7761
▁constitu	-7762
▁restruct	-7763
▁helicopter	-7764
fel	-7765
ken	-7766
▁"10	-7767
▁dfb	-7768
▁övp	-7769
avros	-7770
inted	-7771
▁cabin	-7772
▁1989),	-7773
▁hunter	-7774
▁keystone	-7775
▁biography	-7776
▁approaches	-7777
▁originates	-7778
▁sufficient	-7779
▁respectable	-7780
ич	-7781
▁.	-7782
ario	-7783
oway	-7784
former	-7785
▁1821.	-7786
▁1826.	-7787
▁cives	-7788
▁honors	-7789
▁vocals	-7790
▁palomar	-7791
▁subtype	-7792
▁jonathan	-7793
▁superior	-7794
▁geometric	-7795
▁immediate	-7796
▁mcdonnell	-7797
▁mysterious	-7798
▁cooperation	-7799
▁preparation	-7800
ος	-7801
-16	-7802
kus	-7803
ürk	-7804
ager	-7805
helm	-7806
▁moss	-7807
▁türk	-7808
indones	-7809
▁poured	-7810
▁troops	-7811
▁walker	-7812
iversary	-7813
▁helping	-7814
▁thunder	-7815
▁pandemic	-7816
indonesian	-7817
▁flavorful	-7818
▁romagnoli	-7819
▁afterwards	-7820
▁atmosphere	-7821
▁anniversary	-7822
±1.	-7823
▁ajo	-7824
▁bsg	-7825
▁här	-7826
▁lic	-7827
itive	-7828
verse	-7829
▁clos	-7830
▁ahmed	-7831
▁deleg	-7832
▁shall	-7833
▁tudor	-7834
antioch	-7835
writers	-7836
▁venues	-7837
▁verona	-7838
▁photomet	-7839
▁severely	-7840
▁ahmedabad	-7841
▁campaigns	-7842
▁economics	-7843
li	-7844
cot	-7845
–4.	-7846
▁vo	-7847
▁ال	-7848
▁oct	-7849
▁sac	-7850
▁sor	-7851
rence	-7852
▁enge	-7853
▁says	-7854
.","11	-7855
ipment	-7856
▁moder	-7857
▁pract	-7858
▁prompt	-7859
▁secured	-7860
▁captured	-7861
▁annapolis	-7862
▁equipment	-7863
▁distinctive	-7864
syn	-7865
0°),	-7866
3740	-7867
rops	-7868
▁ddr	-7869
24-10	-7870
▁whig	-7871
▁zeal	-7872
374097	-7873
▁aires	-7874
▁pione	-7875
▁correl	-7876
▁darien	-7877
▁metals	-7878
ganymede	-7879
spectral	-7880
▁chapter	-7881
▁galileo	-7882
▁reduced	-7883
6,000,000	-7884
▁coventry	-7885
▁festival	-7886
▁regarding	-7887
▁alpharetta	-7888
69	-7889
-03	-7890
cin	-7891
inx	-7892
ota	-7893
▁8.	-7894
▁aw	-7895
▁ky	-7896
1,000	-7897
▁requ	-7898
▁buses	-7899
▁roots	-7900
▁tomsk	-7901
dimitra	-7902
ulation	-7903
▁interg	-7904
▁poland	-7905
▁qatari	-7906
▁sphinx	-7907
▁wesham	-7908
▁jamaican	-7909
▁security	-7910
▁consisted	-7911
▁measuring	-7912
▁=	-7913
hit	-7914
▁84	-7915
▁vs	-7916
bage	-7917
dist	-7918
▁bit	-7919
▁tub	-7920
▁yet	-7921
▁jeff	-7922
▁peace	-7923
▁chapel	-7924
▁ticket	-7925
▁erasmus	-7926
▁evolved	-7927
▁fillets	-7928
▁florian	-7929
▁islander	-7930
▁instruments	-7931
-7	-7932
-17	-7933
itle	-7934
▁...	-7935
▁3.1	-7936
▁0.53	-7937
▁1929	-7938
▁cauc	-7939
▁rate	-7940
redded	-7941
▁1862.	-7942
▁evans	-7943
▁ideas	-7944
▁stret	-7945
▁tales	-7946
▁bureau	-7947
▁donated	-7948
▁running	-7949
▁shredded	-7950
▁competing	-7951
▁environment	-7952
▁influential	-7953
▁recognition	-7954
▁specifically	-7955
oku	-7956
sex	-7957
▁hu	-7958
▁oz	-7959
ussi	-7960
▁disp	-7961
▁rico	-7962
▁taro	-7963
ieties	-7964
▁agreed	-7965
▁bastille	-7966
ás	-7967
ön	-7968
rah	-7969
soy	-7970
rock	-7971
▁blt	-7972
▁dbs	-7973
▁ker	-7974
▁sym	-7975
entin	-7976
▁1977	-7977
having	-7978
ombard	-7979
▁defin	-7980
▁sites	-7981
▁necess	-7982
▁search	-7983
schiphol	-7984
▁display	-7985
▁occurred	-7986
▁victories	-7987
▁scientists	-7988
organisation	-7989
°,	-7990
▁λ	-7991
kin	-7992
τλα	-7993
.107	-7994
conn	-7995
rics	-7996
▁4.8	-7997
▁cot	-7998
▁vlt	-7999
eding	-8000
τλαντ	-8001
▁gord	-8002
▁mosh	-8003
▁beaut	-8004
▁flame	-8005
▁pitch	-8006
▁gravit	-8007
▁härtel	-8008
▁cabbage	-8009
▁removed	-8010
▁modeling	-8011
▁thalassa	-8012
▁uncertainty	-8013
75	-8014
five	-8015
▁tah	-8016
cover	-8017
▁chop	-8018
▁maps	-8019
▁shot	-8020
▁toll	-8021
reneur	-8022
▁critic	-8023
▁eaters	-8024
▁paleob	-8025
▁police	-8026
▁identif	-8027
▁styling	-8028
▁terrain	-8029
connected	-8030
repreneur	-8031
▁marietta	-8032
▁modified	-8033
▁directory	-8034
▁provinces	-8035
▁floorcount	-8036
▁paleobiology	-8037
▁transportation	-8038
ár	-8039
▁72	-8040
▁3.5	-8041
daire	-8042
▁liquid	-8043
▁sporty	-8044
▁advance	-8045
▁colored	-8046
▁empress	-8047
▁gateway	-8048
▁lombard	-8049
▁opening	-8050
▁raisins	-8051
▁whisper	-8052
▁computed	-8053
▁evidence	-8054
▁consequent	-8055
ór	-8056
...'	-8057
ulum	-8058
▁(100	-8059
▁(190	-8060
▁1963	-8061
▁foil	-8062
dishes	-8063
etchup	-8064
raltar	-8065
▁gruel	-8066
▁lugaw	-8067
▁backed	-8068
▁disapp	-8069
▁ketchup	-8070
▁machine	-8071
▁departments	-8072
▁essentially	-8073
.*	-8074
comp	-8075
elya	-8076
ilst	-8077
ading	-8078
arnat	-8079
iator	-8080
ieval	-8081
▁0.12	-8082
▁1993	-8083
▁pool	-8084
ported	-8085
▁11264	-8086
members	-8087
▁oldest	-8088
▁paelya	-8089
formerly	-8090
▁cylinder	-8091
▁medieval	-8092
▁visitors	-8093
▁motivated	-8094
▁gravitational	-8095
ptun	-8096
▁mol	-8097
wagen	-8098
▁1979,	-8099
▁1988,	-8100
▁conqu	-8101
berliga	-8102
▁1997–9	-8103
▁boeing	-8104
▁(1903).	-8105
▁afterno	-8106
▁quentin	-8107
▁reformed	-8108
▁attention	-8109
▁condition	-8110
▁gibraltar	-8111
▁seasoning	-8112
songwriters	-8113
▁grantville	-8114
▁temperature	-8115
▁conservative	-8116
uz	-8117
▁ox	-8118
▁wr	-8119
xtap	-8120
▁joe	-8121
ersec	-8122
ighth	-8123
▁loop	-8124
▁sant	-8125
amboll	-8126
ulator	-8127
▁liter	-8128
▁singh	-8129
abraham	-8130
▁berged	-8131
▁juxtap	-8132
▁statue	-8133
▁vision	-8134
repersec	-8135
▁leonard	-8136
▁bergedorf	-8137
▁occasions	-8138
▁depression	-8139
reperseconds	-8140
▁juxtaposition	-8141
▁interconnected	-8142
5.9	-8143
otal	-8144
works	-8145
pended	-8146
▁advis	-8147
▁spons	-8148
▁synth	-8149
▁convert	-8150
▁crashed	-8151
▁nominal	-8152
▁varying	-8153
▁extensive	-8154
▁suspended	-8155
▁waterfront	-8156
eal	-8157
hid	-8158
▁38	-8159
girl	-8160
high	-8161
shaw	-8162
▁cec	-8163
▁ech	-8164
anger	-8165
▁0.08	-8166
▁sylv	-8167
albany	-8168
uguese	-8169
▁flaky	-8170
▁layer	-8171
▁paylo	-8172
olonged	-8173
▁appeal	-8174
▁curren	-8175
▁except	-8176
▁medium	-8177
▁mellow	-8178
▁sieved	-8179
▁sodium	-8180
▁readily	-8181
▁springer	-8182
▁prolonged	-8183
▁alcobendas	-8184
▁cracklings	-8185
.3	-8186
74	-8187
dl	-8188
uxe	-8189
fiel	-8190
loin	-8191
▁max	-8192
aisim	-8193
ovies	-8194
▁19.4	-8195
▁2002	-8196
▁dair	-8197
▁napa	-8198
▁ride	-8199
alfons	-8200
liners	-8201
▁1950,	-8202
▁1989.	-8203
▁gravy	-8204
▁redes	-8205
▁retro	-8206
).","10	-8207
fielder	-8208
several	-8209
▁caisim	-8210
▁deluxe	-8211
building	-8212
▁designs	-8213
▁wilhelm	-8214
▁germanic	-8215
▁residing	-8216
▁chicharrón	-8217
▁midfielder	-8218
▁tenderloin	-8219
▁responsibility	-8220
84	-8221
▁kj	-8222
ider	-8223
inav	-8224
▁kat	-8225
graph	-8226
▁2023	-8227
▁abon	-8228
▁amor	-8229
▁anna	-8230
▁2020.	-8231
▁diced	-8232
▁oncom	-8233
▁scare	-8234
▁store	-8235
▁basted	-8236
▁durand	-8237
▁finely	-8238
▁julius	-8239
▁overlo	-8240
▁prince	-8241
▁smoked	-8242
▁source	-8243
▁demeter	-8244
▁stephen	-8245
▁gourmand	-8246
▁programs	-8247
▁scandinav	-8248
▁telegraph	-8249
▁australian	-8250
▁chronister	-8251
sen	-8252
▁jup	-8253
/2016	-8254
▁5000	-8255
▁alan	-8256
▁prep	-8257
▁1894.	-8258
uruguay	-8259
▁candle	-8260
▁jupiter	-8261
▁striker	-8262
▁testing	-8263
▁commands	-8264
ias	-8265
▁1.9	-8266
▁bud	-8267
aries	-8268
arina	-8269
tario	-8270
▁grid	-8271
christ	-8272
▁ability	-8273
▁numbers	-8274
▁ontario	-8275
▁wilkins	-8276
▁bankrupt	-8277
▁liverpool	-8278
biographical	-8279
squ	-8280
azer	-8281
ched	-8282
olai	-8283
resp	-8284
thes	-8285
▁(4.	-8286
owise	-8287
▁cros	-8288
oustic	-8289
people	-8290
▁1863,	-8291
▁apert	-8292
▁canal	-8293
▁chern	-8294
founder	-8295
▁harlem	-8296
▁somers	-8297
arnataka	-8298
azerbaij	-8299
▁farming	-8300
▁neowise	-8301
▁nikolai	-8302
▁objects	-8303
▁removal	-8304
▁someone	-8305
▁apertura	-8306
▁shooting	-8307
▁entrepreneur	-8308
hatt	-8309
pret	-8310
▁163	-8311
barny	-8312
▁airb	-8313
▁euro	-8314
▁mitte	-8315
▁eugene	-8316
▁kitchen	-8317
▁monarchy	-8318
▁commandant	-8319
iu	-8320
▁,	-8321
ife	-8322
ampo	-8323
inco	-8324
oman	-8325
▁aqu	-8326
▁fay	-8327
andra	-8328
inson	-8329
intic	-8330
▁chor	-8331
▁lear	-8332
▁ripe	-8333
ituted	-8334
teenth	-8335
umbent	-8336
▁1967)	-8337
▁ponte	-8338
▁veter	-8339
espread	-8340
▁hackle	-8341
▁prison	-8342
▁drummer	-8343
▁knights	-8344
inticinco	-8345
▁colonial	-8346
chancellor	-8347
▁hackleman	-8348
▁incumbent	-8349
▁legendary	-8350
▁challenged	-8351
▁widespread	-8352
ew	-8353
111	-8354
ecd	-8355
▁3,4	-8356
adors	-8357
georg	-8358
▁echl	-8359
▁abdul	-8360
▁addis	-8361
▁arrow	-8362
▁cryst	-8363
▁faces	-8364
▁maint	-8365
▁proto	-8366
ilation	-8367
▁intact	-8368
▁parish	-8369
andalusia	-8370
▁platform	-8371
▁spiritsh	-8372
▁divisions	-8373
▁manufacturing	-8374
2-	-8375
oko	-8376
▁90	-8377
▁tip	-8378
▁scen	-8379
oldoff	-8380
square	-8381
▁affil	-8382
▁gloom	-8383
amdavad	-8384
▁cotton	-8385
▁sunlit	-8386
▁treaty	-8387
▁conflicts	-8388
▁developing	-8389
case	-8390
▁exc	-8391
panic	-8392
▁iron	-8393
▁pere	-8394
hattan	-8395
office	-8396
▁alive	-8397
▁hardy	-8398
▁errone	-8399
▁phrase	-8400
▁focused	-8401
▁amarillo	-8402
▁concerned	-8403
▁potential	-8404
▁reportedly	-8405
▁volkswagen	-8406
pat	-8407
acha	-8408
orro	-8409
▁19,	-8410
▁212	-8411
▁elim	-8412
▁frag	-8413
▁paid	-8414
edelli	-8415
observ	-8416
ointed	-8417
▁antig	-8418
▁begun	-8419
▁gates	-8420
selling	-8421
▁refurb	-8422
▁charged	-8423
▁complic	-8424
▁provide	-8425
▁zealand	-8426
▁acoustic	-8427
▁lombardy	-8428
▁defeating	-8429
▁pittsburgh	-8430
▁successive	-8431
observations	-8432
▁electronics	-8433
▁commissioner	-8434
ii	-8435
-56-	-8436
ging	-8437
yard	-8438
clair	-8439
ustum	-8440
▁abel	-8441
▁hemi	-8442
▁upbr	-8443
berish	-8444
▁types	-8445
grandpa	-8446
▁severn	-8447
▁frustum	-8448
▁assembly	-8449
▁catharina	-8450
▁gibberish	-8451
▁hazardous	-8452
▁montclair	-8453
▁leadership	-8454
▁upbringing	-8455
▁determination	-8456
valgobbiazanano	-8457
pur	-8458
iyat	-8459
rend	-8460
sala	-8461
opoul	-8462
▁thor	-8463
▁barth	-8464
develop	-8465
opoulos	-8466
▁alpena	-8467
▁danish	-8468
▁rulers	-8469
▁antigua	-8470
▁norfolk	-8471
▁reasons	-8472
▁retreat	-8473
▁substituted	-8474
opy	-8475
usz	-8476
ymn	-8477
▁gh	-8478
iffs	-8479
▁pes	-8480
arait	-8481
aters	-8482
seven	-8483
▁cape	-8484
▁dece	-8485
▁helm	-8486
harbor	-8487
▁leave	-8488
▁paris	-8489
eastern	-8490
▁romano	-8491
tamarind	-8492
▁kharait	-8493
▁ganymede	-8494
▁georgian	-8495
▁landmass	-8496
minangkabau	-8497
▁kharaitiyat	-8498
sed	-8499
wan	-8500
instr	-8501
▁skin	-8502
▁1972,	-8503
▁1980)	-8504
▁cliff	-8505
▁persu	-8506
▁piece	-8507
▁straw	-8508
▁limits	-8509
▁newcom	-8510
▁plural	-8511
▁turned	-8512
national	-8513
▁chorizo	-8514
▁getting	-8515
▁inspire	-8516
▁radical	-8517
▁ancestry	-8518
▁document	-8519
instrument	-8520
▁hardcover	-8521
▁occasional	-8522
instrumentalist	-8523
95	-8524
▁ø	-8525
▁ry	-8526
east	-8527
iden	-8528
▁nhl	-8529
▁raw	-8530
▁raz	-8531
▁øre	-8532
▁1500	-8533
▁harv	-8534
script	-8535
wealth	-8536
▁1918.	-8537
▁angle	-8538
▁negro	-8539
▁saber	-8540
imetres	-8541
slavery	-8542
spanish	-8543
▁2010–1	-8544
▁eating	-8545
▁latino	-8546
▁preced	-8547
▁repair	-8548
official	-8549
▁comwell	-8550
▁probate	-8551
▁trading	-8552
▁ørestad	-8553
▁sculpture	-8554
▁flagbearer	-8555
▁commemorating	-8556
bh	-8557
ät	-8558
odal	-8559
▁psv	-8560
▁issn	-8561
establ	-8562
▁barry	-8563
▁butty	-8564
▁medic	-8565
▁twent	-8566
▁actual	-8567
▁advent	-8568
▁patron	-8569
▁handling	-8570
▁phonology	-8571
established	-8572
▁immediately	-8573
▁completiondate	-8574
907	-8575
rect	-8576
▁sag	-8577
▁peng	-8578
likely	-8579
▁ultra	-8580
section	-8581
fountain	-8582
mackerel	-8583
▁asteris	-8584
▁tongkol	-8585
▁assigned	-8586
▁taxonomy	-8587
▁malaysian	-8588
▁prefectural	-8589
ees	-8590
kfc	-8591
alow	-8592
aria	-8593
ulla	-8594
dling	-8595
iency	-8596
▁1975	-8597
▁bung	-8598
hammad	-8599
▁1825,	-8600
▁grass	-8601
▁longh	-8602
▁tenant	-8603
speaking	-8604
▁badulla	-8605
▁heavier	-8606
▁bungalow	-8607
▁creators	-8608
▁spinning	-8609
▁presented	-8610
▁efficiency	-8611
▁extraction	-8612
▁exhibitions	-8613
dy	-8614
▁ł	-8615
yes	-8616
view	-8617
▁wit	-8618
acies	-8619
marks	-8620
rozny	-8621
ubson	-8622
uszcz	-8623
▁kirk	-8624
▁need	-8625
▁rear	-8626
▁ring	-8627
▁lions	-8628
▁2006–0	-8629
▁carved	-8630
▁grozny	-8631
▁inquir	-8632
▁oliver	-8633
▁łuszcz	-8634
▁grubson	-8635
▁seventy	-8636
accademia	-8637
valencian	-8638
▁frontman	-8639
▁namesake	-8640
▁occupies	-8641
▁controlled	-8642
db	-8643
ων	-8644
aem	-8645
ela	-8646
mir	-8647
eiro	-8648
iour	-8649
lcdb	-8650
▁mam	-8651
apted	-8652
▁disb	-8653
▁meal	-8654
▁taib	-8655
▁tiny	-8656
places	-8657
porary	-8658
▁aenir	-8659
▁mines	-8660
▁raoul	-8661
israeli	-8662
▁crones	-8663
▁paraná	-8664
▁pender	-8665
▁styria	-8666
▁adapted	-8667
▁behrend	-8668
▁earning	-8669
▁feature	-8670
▁martian	-8671
▁renowned	-8672
▁disbanded	-8673
▁monuments	-8674
▁partially	-8675
▁indicative	-8676
▁numberofmembers	-8677
dev	-8678
ema	-8679
oard	-8680
▁148	-8681
▁jim	-8682
▁tir	-8683
▁upp	-8684
angka	-8685
elson	-8686
lower	-8687
metal	-8688
▁axes	-8689
▁1965,	-8690
▁canon	-8691
▁helen	-8692
curring	-8693
▁indeed	-8694
ublished	-8695
▁limited	-8696
▁minimum	-8697
▁terrace	-8698
▁uppsala	-8699
▁attached	-8700
▁dissolved	-8701
▁concurring	-8702
-87	-8703
has	-8704
–75	-8705
embr	-8706
▁les	-8707
ansas	-8708
owice	-8709
▁(110	-8710
▁glue	-8711
▁mike	-8712
▁tree	-8713
▁1985)	-8714
▁brick	-8715
▁crops	-8716
▁hindu	-8717
▁marie	-8718
▁melod	-8719
iration	-8720
▁gloppy	-8721
▁kansas	-8722
▁marble	-8723
▁isabelle	-8724
▁katowice	-8725
▁employees	-8726
▁thickening	-8727
▁consistency	-8728
▁universität	-8729
”,	-8730
izz	-8731
▁$4	-8732
adav	-8733
igib	-8734
▁24-	-8735
▁74.	-8736
ilesh	-8737
ivdev	-8738
▁aten	-8739
▁flib	-8740
▁jens	-8741
centre	-8742
estley	-8743
ivalen	-8744
quency	-8745
▁10000	-8746
▁graph	-8747
▁hills	-8748
▁yadav	-8749
igibbet	-8750
▁gordon	-8751
▁routes	-8752
▁natwest	-8753
▁pageant	-8754
▁shivdev	-8755
▁socorro	-8756
▁soloist	-8757
priestley	-8758
▁akhilesh	-8759
▁calloway	-8760
▁flibbert	-8761
generation	-8762
▁coalition	-8763
▁frequency	-8764
▁movements	-8765
ifestivalen	-8766
▁disneyland	-8767
▁flibbertigibbet	-8768
13	-8769
soe	-8770
mars	-8771
▁1962	-8772
▁22.3	-8773
▁ekah	-8774
▁soci	-8775
▁trav	-8776
▁zone	-8777
▁(35.9	-8778
▁focal	-8779
▁weigh	-8780
▁hollow	-8781
▁exhaust	-8782
▁graduate	-8783
▁greenland	-8784
▁spectators	-8785
▁transactions	-8786
gz	-8787
cre	-8788
whe	-8789
ajan	-8790
wing	-8791
▁vgz	-8792
▁dict	-8793
▁isbn	-8794
entine	-8795
▁harry	-8796
▁shore	-8797
ertitle	-8798
▁junior	-8799
▁peters	-8800
▁seller	-8801
▁tonnes	-8802
▁catholics	-8803
▁leadertitle	-8804
gb	-8805
0.4	-8806
▁sü	-8807
▁(10	-8808
▁mac	-8809
▁brad	-8810
▁gymn	-8811
▁1845,	-8812
▁madin	-8813
▁newer	-8814
▁verif	-8815
▁boxing	-8816
▁escape	-8817
▁script	-8818
▁stadio	-8819
▁twenty	-8820
▁graphic	-8821
▁kirkham	-8822
▁interpret	-8823
▁integrated	-8824
▁authorities	-8825
▁convertible	-8826
osl	-8827
each	-8828
odic	-8829
▁aik	-8830
▁duo	-8831
▁iii	-8832
▁drew	-8833
▁1881,	-8834
▁diego	-8835
▁femin	-8836
▁milit	-8837
▁renew	-8838
▁welsh	-8839
▁eighth	-8840
▁(66063)	-8841
▁bandung	-8842
▁newcomb	-8843
▁touched	-8844
▁deputies	-8845
▁orbiting	-8846
▁standing	-8847
▁strawber	-8848
▁landmarks	-8849
▁providing	-8850
▁presidency	-8851
▁modifications	-8852
big	-8853
ñol	-8854
adam	-8855
etts	-8856
ipel	-8857
phys	-8858
▁450	-8859
▁1939	-8860
▁2,70	-8861
▁know	-8862
▁mack	-8863
▁orth	-8864
▁snap	-8865
-12-16	-8866
▁1812.	-8867
▁1970.	-8868
▁carry	-8869
▁sword	-8870
ipelago	-8871
▁amount	-8872
▁pierre	-8873
▁strips	-8874
▁reaches	-8875
▁adoptive	-8876
▁basement	-8877
▁detected	-8878
▁predicted	-8879
▁standards	-8880
▁archipelago	-8881
pə	-8882
irty	-8883
abeth	-8884
achus	-8885
atlas	-8886
stein	-8887
▁caps	-8888
▁djur	-8889
▁dust	-8890
▁epis	-8891
eleine	-8892
tering	-8893
▁dirty	-8894
▁locals	-8895
▁resign	-8896
▁strateg	-8897
▁wounded	-8898
achusetts	-8899
▁educator	-8900
▁madeleine	-8901
▁sebastian	-8902
];	-8903
▁71	-8904
kway	-8905
▁400	-8906
▁cif	-8907
▁sud	-8908
▁cran	-8909
poured	-8910
▁agree	-8911
▁autob	-8912
▁kilog	-8913
▁cucina	-8914
▁fertil	-8915
▁joseph	-8916
▁stayed	-8917
▁2018–19	-8918
▁appoint	-8919
▁express	-8920
▁harbour	-8921
▁recogniz	-8922
▁direction	-8923
▁comparable	-8924
▁traditions	-8925
▁potentially	-8926
tak	-8927
–10	-8928
aven	-8929
fare	-8930
oupe	-8931
▁2.9	-8932
▁925	-8933
▁mph	-8934
▁vik	-8935
▁rush	-8936
▁accel	-8937
▁drago	-8938
▁onion	-8939
▁terek	-8940
▁theme	-8941
▁moshup	-8942
▁whilst	-8943
▁olympia	-8944
▁warfare	-8945
▁wherein	-8946
▁capitals	-8947
▁merchant	-8948
▁villages	-8949
▁fertility	-8950
▁rebranded	-8951
▁surrounds	-8952
▁astronautics	-8953
73)	-8954
dew	-8955
arez	-8956
ques	-8957
▁2.0	-8958
▁pho	-8959
▁álv	-8960
▁2185	-8961
▁brom	-8962
▁lett	-8963
▁lubb	-8964
▁vess	-8965
aloupe	-8966
izzled	-8967
milano	-8968
▁1922,	-8969
▁1975.	-8970
▁cubes	-8971
▁grown	-8972
atories	-8973
renched	-8974
▁(1973)	-8975
▁apples	-8976
▁dimmit	-8977
▁gothic	-8978
▁papaya	-8979
▁lubbock	-8980
▁revival	-8981
▁younger	-8982
▁álvarez	-8983
▁asterisk	-8984
▁drenched	-8985
▁drizzled	-8986
▁fernando	-8987
▁heinrich	-8988
▁honeydew	-8989
▁inoffice	-8990
▁landmark	-8991
▁cantaloupe	-8992
▁structures	-8993
▁strawberries	-8994
-27	-8995
800	-8996
kun	-8997
oca	-8998
oyo	-8999
ombo	-9000
umbs	-9001
▁658	-9002
▁bab	-9003
▁hem	-9004
ancsh	-9005
eliza	-9006
oboyo	-9007
strup	-9008
using	-9009
▁vene	-9010
▁vigo	-9011
colini	-9012
crumbs	-9013
▁eliza	-9014
quiring	-9015
▁aboard	-9016
▁bancsh	-9017
▁beeton	-9018
▁colombo	-9019
▁couples	-9020
▁(110,000	-9021
▁describe	-9022
▁longitud	-9023
▁shallots	-9024
▁suggests	-9025
▁suroboyo	-9026
▁alexander	-9027
▁anchovies	-9028
▁erroneous	-9029
▁marcolini	-9030
▁migration	-9031
▁bancshares	-9032
▁unofficial	-9033
▁variations	-9034
▁verifiable	-9035
▁breadcrumbs	-9036
inn	-9037
sor	-9038
ipso	-9039
▁(4,	-9040
▁weap	-9041
atotal	-9042
ipsoid	-9043
▁jussi	-9044
▁upset	-9045
▁buying	-9046
▁marion	-9047
▁steven	-9048
alderney	-9049
▁forming	-9050
▁militia	-9051
▁motorway	-9052
▁precover	-9053
▁areatotal	-9054
▁delivered	-9055
▁ellipsoid	-9056
▁geography	-9057
▁hungarian	-9058
▁shareholder	-9059
lya	-9060
oni	-9061
mate	-9062
▁(89	-9063
▁gfc	-9064
annit	-9065
iance	-9066
prior	-9067
rains	-9068
▁purs	-9069
▁told	-9070
▁zamb	-9071
useppe	-9072
▁1967.	-9073
▁aiken	-9074
▁venez	-9075
ertegun	-9076
▁sexual	-9077
▁suburb	-9078
▁bassist	-9079
▁brunner	-9080
▁giuseppe	-9081
▁reinmuth	-9082
▁squannit	-9083
▁spherical	-9084
▁supporter	-9085
▁extensively	-9086
.1.	-9087
aco	-9088
ats	-9089
bank	-9090
▁4–1	-9091
urban	-9092
▁10.3	-9093
▁1898.	-9094
▁2001,	-9095
▁denot	-9096
▁fired	-9097
▁forms	-9098
▁milong	-9099
▁orient	-9100
▁weekly	-9101
designed	-9102
▁antonio	-9103
▁certain	-9104
▁kilograms	-9105
-14	-9106
aki	-9107
nis	-9108
▁48	-9109
ills	-9110
rane	-9111
ucci	-9112
▁dor	-9113
▁sap	-9114
▁gets	-9115
▁tapi	-9116
ranean	-9117
▁bears	-9118
▁maran	-9119
▁scott	-9120
▁smoke	-9121
▁tough	-9122
▁blocks	-9123
▁caught	-9124
▁conven	-9125
▁posted	-9126
▁racing	-9127
discover	-9128
▁tapioca	-9129
▁venezuel	-9130
iterranean	-9131
▁harriette	-9132
▁manhattan	-9133
▁christened	-9134
▁architectural	-9135
▁internationally	-9136
ati	-9137
=3).	-9138
meas	-9139
▁'54	-9140
▁plc	-9141
▁acmi	-9142
others	-9143
▁arist	-9144
▁liked	-9145
▁molen	-9146
▁needs	-9147
alkmaar	-9148
▁spacew	-9149
▁inquiry	-9150
▁powered	-9151
▁artistic	-9152
▁asherton	-9153
▁división	-9154
▁molenaar	-9155
▁catalonia	-9156
▁structural	-9157
measurements	-9158
▁substantial	-9159
ko	-9160
cov	-9161
low	-9162
–3.	-9163
▁1-	-9164
bene	-9165
gnet	-9166
palm	-9167
taro	-9168
▁mut	-9169
▁rog	-9170
pilit	-9171
rozen	-9172
thick	-9173
▁fifa	-9174
▁gabi	-9175
▁ware	-9176
covado	-9177
nesota	-9178
purple	-9179
▁anise	-9180
▁cubed	-9181
▁float	-9182
▁lemon	-9183
▁leyte	-9184
▁panay	-9185
▁sixty	-9186
▁vangu	-9187
agustín	-9188
coconut	-9189
theless	-9190
▁curves	-9191
▁frozen	-9192
▁kamote	-9193
▁langka	-9194
▁milled	-9195
▁pearls	-9196
▁sacked	-9197
benegnet	-9198
▁benefit	-9199
▁chilled	-9200
▁herself	-9201
▁stirred	-9202
▁wayback	-9203
glutinous	-9204
▁archived	-9205
▁curdling	-9206
▁feminine	-9207
▁murrains	-9208
▁simmered	-9209
▁softened	-9210
▁vanguard	-9211
▁exercises	-9212
▁muscovado	-9213
▁necessary	-9214
▁observant	-9215
▁reelected	-9216
▁strongest	-9217
▁sweetened	-9218
▁veinticinco	-9219
▁sufficiently	-9220
▁restructuring	-9221
rox	-9222
rmal	-9223
▁tus	-9224
hoods	-9225
▁glen	-9226
▁rapp	-9227
opyrox	-9228
▁ellis	-9229
▁limit	-9230
▁moves	-9231
▁runner	-9232
▁synodic	-9233
▁thermal	-9234
▁averaged	-9235
▁persuaded	-9236
▁orthopyrox	-9237
▁republished	-9238
▁continuously	-9239
=3-	-9240
agr	-9241
oma	-9242
▁41	-9243
▁5.	-9244
tama	-9245
–4.1	-9246
▁dum	-9247
▁lob	-9248
adhim	-9249
ienna	-9250
▁0.28	-9251
▁luis	-9252
▁assad	-9253
▁climb	-9254
olation	-9255
▁kadhim	-9256
▁theater	-9257
▁explorer	-9258
▁magnetic	-9259
▁vehicles	-9260
81	-9261
ɾe	-9262
cel	-9263
scr	-9264
▁73	-9265
anca	-9266
psoe	-9267
pakora	-9268
▁1994,	-9269
▁bobby	-9270
▁bruno	-9271
▁kelly	-9272
▁prime	-9273
▁stops	-9274
▁madras	-9275
▁priced	-9276
▁radius	-9277
aleksand	-9278
▁philips	-9279
▁registr	-9280
▁surveys	-9281
▁webster	-9282
▁minnesota	-9283
▁typically	-9284
▁registration	-9285
▁subcontinent	-9286
490	-9287
cab	-9288
tes	-9289
lane	-9290
▁eph	-9291
sland	-9292
table	-9293
▁1894	-9294
▁500,	-9295
▁komm	-9296
▁unch	-9297
illery	-9298
▁2023,	-9299
▁homet	-9300
▁sarah	-9301
▁stern	-9302
▁circle	-9303
▁500,490	-9304
▁catalan	-9305
▁kommune	-9306
▁concerns	-9307
▁hometown	-9308
▁olympian	-9309
▁artillery	-9310
▁djursland	-9311
▁westfield	-9312
▁commonwealth	-9313
777	-9314
irt	-9315
anje	-9316
care	-9317
term	-9318
▁0.2	-9319
▁unw	-9320
bound	-9321
tical	-9322
ynjur	-9323
▁"103	-9324
▁1632	-9325
▁bond	-9326
▁chen	-9327
▁impl	-9328
▁lane	-9329
enheim	-9330
plural	-9331
▁incor	-9332
▁vanir	-9333
ography	-9334
ologist	-9335
shortly	-9336
▁allows	-9337
▁stages	-9338
physical	-9339
▁produce	-9340
▁arriving	-9341
▁pantheon	-9342
▁stanford	-9343
▁healthcare	-9344
deg	-9345
ksh	-9346
▁3.0	-9347
▁0.00	-9348
▁1946)	-9349
▁lever	-9350
▁psdeg	-9351
▁manner	-9352
▁tracks	-9353
▁streets	-9354
▁incorrect	-9355
▁increases	-9356
▁something	-9357
▁colleagues	-9358
▁encompassed	-9359
rɔ	-9360
joy	-9361
rɔz	-9362
▁şə	-9363
hidl	-9364
igns	-9365
ogle	-9366
▁qiu	-9367
▁xia	-9368
icoff	-9369
iffer	-9370
▁maur	-9371
▁samp	-9372
marcin	-9373
▁1977)	-9374
▁enjoy	-9375
▁google	-9376
▁presum	-9377
▁şəhidl	-9378
▁2012–13,	-9379
▁currency	-9380
▁millions	-9381
▁xiaolong	-9382
azerbaijani	-9383
▁considerable	-9384
▁mediterranean	-9385
kɔ	-9386
ɽa	-9387
ink	-9388
▁55	-9389
arce	-9390
auer	-9391
ovak	-9392
▁naf	-9393
▁pel	-9394
▁(150	-9395
▁auto	-9396
▁chai	-9397
▁gann	-9398
▁paso	-9399
▁sens	-9400
▁tool	-9401
embrie	-9402
▁1843,	-9403
▁1969,	-9404
▁1971,	-9405
▁adapt	-9406
▁armed	-9407
▁bibbo	-9408
▁creek	-9409
▁mahal	-9410
powered	-9411
▁masala	-9412
▁norman	-9413
▁relays	-9414
families	-9415
▁angolan	-9416
▁curbing	-9417
▁demarce	-9418
▁fritter	-9419
▁injured	-9420
▁justice	-9421
▁malanje	-9422
▁takeoff	-9423
▁uninter	-9424
▁delegate	-9425
▁ordained	-9426
▁preached	-9427
▁alcoholic	-9428
▁beverages	-9429
▁decembrie	-9430
▁underhill	-9431
▁overloaded	-9432
▁productive	-9433
▁originating	-9434
▁massachusetts	-9435
oa	-9436
pi	-9437
wa	-9438
▁)	-9439
▁(9	-9440
iled	-9441
stan	-9442
▁leh	-9443
adier	-9444
aling	-9445
▁chal	-9446
inence	-9447
▁iraqi	-9448
▁2008–0	-9449
▁colour	-9450
▁palmer	-9451
▁proves	-9452
▁audience	-9453
▁prominence	-9454
γε	-9455
8.0	-9456
894	-9457
orge	-9458
phas	-9459
▁cro	-9460
▁una	-9461
ocity	-9462
presa	-9463
▁0.29	-9464
▁hits	-9465
▁weyl	-9466
▁1968,	-9467
▁durán	-9468
▁surge	-9469
bandeja	-9470
jectory	-9471
▁blanca	-9472
▁trials	-9473
velocity	-9474
▁circuit	-9475
▁colonia	-9476
▁hermann	-9477
▁pension	-9478
▁twitter	-9479
▁retained	-9480
▁sorpresa	-9481
▁hungarica	-9482
▁trajectory	-9483
▁approaching	-9484
▁mathematica	-9485
▁escapevelocity	-9486
-23	-9487
oct	-9488
▁7.	-9489
)","	-9490
isbn	-9491
▁fan	-9492
▁wis	-9493
iners	-9494
otive	-9495
▁cycl	-9496
▁penc	-9497
▁poem	-9498
little	-9499
tisalo	-9500
▁1970)	-9501
▁dumpl	-9502
▁setup	-9503
▁emilio	-9504
▁mascot	-9505
▁symbol	-9506
▁cabinet	-9507
▁cranium	-9508
▁spelled	-9509
▁offering	-9510
▁planning	-9511
▁lehtisalo	-9512
▁literature	-9513
▁understand	-9514
'1	-9515
cf	-9516
uña	-9517
femp	-9518
uren	-9519
▁ahl	-9520
▁kry	-9521
▁ufc	-9522
anche	-9523
anked	-9524
tyard	-9525
vedra	-9526
▁kras	-9527
▁tahu	-9528
consin	-9529
ffield	-9530
gregor	-9531
▁chose	-9532
▁renov	-9533
▁buuren	-9534
▁coruña	-9535
▁minute	-9536
▁species	-9537
▁stepped	-9538
▁tickets	-9539
caballero	-9540
▁hundreds	-9541
▁mcgregor	-9542
▁courtyard	-9543
▁restarted	-9544
▁sheffield	-9545
▁wisconsin	-9546
▁pontevedra	-9547
▁definitions	-9548
-26	-9549
▁mp	-9550
opus	-9551
▁gru	-9552
▁ted	-9553
apest	-9554
overs	-9555
camore	-9556
common	-9557
encies	-9558
▁1932.	-9559
▁issue	-9560
▁tires	-9561
▁ribbon	-9562
▁scopus	-9563
▁resides	-9564
▁sycamore	-9565
▁behaviour	-9566
▁continuing	-9567
▁etymologically	-9568
jī	-9569
ōe	-9570
fir	-9571
nya	-9572
▁96	-9573
▁sg	-9574
post	-9575
▁152	-9576
▁33.	-9577
first	-9578
piece	-9579
sokol	-9580
trick	-9581
▁heir	-9582
▁lift	-9583
▁true	-9584
ognate	-9585
sville	-9586
▁1958)	-9587
▁arabb	-9588
▁paint	-9589
▁tanks	-9590
▁500,000	-9591
▁hokkien	-9592
▁session	-9593
▁instruct	-9594
▁medicine	-9595
▁stretches	-9596
▁marysville	-9597
▁appointment	-9598
▁legislative	-9599
▁mathematical	-9600
agh	-9601
ahn	-9602
das	-9603
▁ll	-9604
atis	-9605
▁alt	-9606
▁gap	-9607
▁gon	-9608
byter	-9609
rated	-9610
placed	-9611
sstart	-9612
▁doesn	-9613
fiction	-9614
▁abacha	-9615
▁slaves	-9616
▁spouse	-9617
▁strait	-9618
atisfact	-9619
byterian	-9620
▁tariffs	-9621
▁presbyterian	-9622
57	-9623
-24	-9624
700	-9625
tex	-9626
▁95	-9627
▁bi	-9628
iful	-9629
▁clo	-9630
▁dol	-9631
▁dub	-9632
great	-9633
water	-9634
acular	-9635
system	-9636
▁1963.	-9637
▁ahmet	-9638
▁alien	-9639
▁crowd	-9640
▁encour	-9641
▁vienna	-9642
▁heavily	-9643
▁acquiring	-9644
▁attending	-9645
▁campedelli	-9646
▁derivative	-9647
▁runwayname	-9648
▁sociologist	-9649
hor	-9650
nav	-9651
oba	-9652
erce	-9653
▁bes	-9654
▁que	-9655
owski	-9656
▁1919	-9657
verted	-9658
▁halls	-9659
▁ready	-9660
▁steve	-9661
▁stuff	-9662
▁bengal	-9663
▁arrival	-9664
▁drawing	-9665
▁gujarat	-9666
▁singing	-9667
▁catholic	-9668
▁commerce	-9669
▁presumably	-9670
associazione	-9671
▁operational	-9672
اد	-9673
apc	-9674
vet	-9675
yev	-9676
–16	-9677
▁dj	-9678
▁bij	-9679
▁0.41	-9680
▁asad	-9681
▁ling	-9682
▁sarn	-9683
ophist	-9684
▁1879,	-9685
▁hands	-9686
▁mckin	-9687
▁canary	-9688
▁cooper	-9689
▁javier	-9690
▁napier	-9691
▁borough	-9692
▁promote	-9693
▁thinner	-9694
omination	-9695
▁attempts	-9696
▁confused	-9697
▁denoting	-9698
▁recalled	-9699
▁cultivars	-9700
▁permitted	-9701
ophisticated	-9702
▁improvement	-9703
▁combinations	-9704
43	-9705
suk	-9706
▁mé	-9707
ashk	-9708
oted	-9709
adows	-9710
aints	-9711
grade	-9712
powys	-9713
ritsu	-9714
sukan	-9715
▁boss	-9716
▁eggs	-9717
▁hope	-9718
▁matt	-9719
▁wemb	-9720
▁admir	-9721
▁bijut	-9722
▁bound	-9723
▁krasn	-9724
▁ninth	-9725
▁trees	-9726
▁2004–0	-9727
▁barkov	-9728
▁genres	-9729
▁images	-9730
▁termin	-9731
▁account	-9732
▁bounded	-9733
▁reorgan	-9734
▁wembley	-9735
▁inducted	-9736
▁kenritsu	-9737
▁interview	-9738
▁bijutsukan	-9739
▁commanding	-9740
▁understood	-9741
▁convenience	-9742
azi	-9743
udi	-9744
ελλ	-9745
▁"11	-9746
▁tob	-9747
▁nazi	-9748
▁apple	-9749
▁curtis	-9750
▁judged	-9751
▁regime	-9752
▁hamburger	-9753
▁conditions	-9754
ipl	-9755
mas	-9756
sar	-9757
▁cé	-9758
join	-9759
▁ost	-9760
ption	-9761
▁1896	-9762
▁fasc	-9763
europe	-9764
▁monter	-9765
▁schmid	-9766
election	-9767
▁2019–20	-9768
▁booster	-9769
▁daggett	-9770
▁densely	-9771
▁feeling	-9772
▁penguins	-9773
▁spokenin	-9774
▁03	-9775
upon	-9776
árez	-9777
▁2.8	-9778
▁340	-9779
label	-9780
rably	-9781
▁grum	-9782
alties	-9783
▁1947)	-9784
▁1973.	-9785
▁dance	-9786
▁berlin	-9787
▁choice	-9788
▁sought	-9789
▁outcome	-9790
▁tubular	-9791
▁asunción	-9792
▁involves	-9793
▁repeated	-9794
▁rotating	-9795
bundesliga	-9796
▁extracted	-9797
▁publishes	-9798
▁promotions	-9799
awa	-9800
▁69	-9801
hero	-9802
oven	-9803
park	-9804
▁haj	-9805
aquin	-9806
erico	-9807
▁quay	-9808
▁reop	-9809
▁extrem	-9810
▁keeper	-9811
terminal	-9812
▁amdavad	-9813
▁joaquin	-9814
▁arranged	-9815
▁recordlabel	-9816
oton	-9817
▁11.	-9818
▁14%	-9819
▁30.	-9820
▁978	-9821
▁mul	-9822
ecode	-9823
eries	-9824
ouses	-9825
▁loin	-9826
▁masa	-9827
▁wang	-9828
indian	-9829
ksburg	-9830
scorer	-9831
▁burnt	-9832
▁enfor	-9833
october	-9834
▁matter	-9835
▁netted	-9836
▁tanaka	-9837
▁convair	-9838
▁masaaki	-9839
▁matters	-9840
▁noroton	-9841
▁serious	-9842
▁witness	-9843
▁contempl	-9844
▁tirstrup	-9845
▁replacing	-9846
▁collective	-9847
▁goalscorer	-9848
▁fredericksburg	-9849
22	-9850
yc	-9851
865	-9852
▁4°	-9853
osyn	-9854
peng	-9855
taib	-9856
▁1917	-9857
▁rule	-9858
second	-9859
thodox	-9860
uation	-9861
▁2002.	-9862
▁decre	-9863
▁lance	-9864
▁shaft	-9865
▁stamp	-9866
plained	-9867
▁advert	-9868
▁easter	-9869
▁mental	-9870
▁sector	-9871
▁borussia	-9872
▁mamiffer	-9873
▁platinum	-9874
▁assembled	-9875
▁dumplings	-9876
▁karnataka	-9877
▁paperback	-9878
▁unexplained	-9879
▁establishments	-9880
rest	-9881
▁hiv	-9882
ching	-9883
orton	-9884
▁0.45	-9885
▁1951	-9886
▁1927.	-9887
▁burst	-9888
▁compl	-9889
akhstan	-9890
inburgh	-9891
▁prices	-9892
▁rachel	-9893
▁simple	-9894
▁charest	-9895
▁reading	-9896
▁viewing	-9897
▁defender	-9898
▁releases	-9899
▁paintings	-9900
▁selection	-9901
▁conclusion	-9902
▁franchises	-9903
▁gymnastics	-9904
▁kazakhstan	-9905
▁refuelling	-9906
.-	-9907
ean	-9908
sci	-9909
▁kc	-9910
isis	-9911
▁3–1	-9912
▁kel	-9913
▁rat	-9914
kaeng	-9915
▁1089	-9916
▁coff	-9917
▁hans	-9918
▁jets	-9919
▁lies	-9920
▁sagu	-9921
▁thai	-9922
-2009,	-9923
000","	-9924
abarth	-9925
ensive	-9926
▁annex	-9927
▁doshi	-9928
▁phase	-9929
▁rated	-9930
lempeng	-9931
▁lingga	-9932
▁proced	-9933
▁thanks	-9934
▁theore	-9935
▁volsci	-9936
▁claudio	-9937
▁griddle	-9938
▁measure	-9939
▁resorts	-9940
▁rocking	-9941
▁kingdoms	-9942
▁upcoming	-9943
girlfriend	-9944
▁shortened	-9945
atisfaction	-9946
▁preferrably	-9947
▁synchronous	-9948
▁dissatisfaction	-9949
▁63	-9950
▁ti	-9951
cled	-9952
lega	-9953
▁32.	-9954
▁bed	-9955
▁esp	-9956
▁usl	-9957
▁inch	-9958
▁mess	-9959
ircled	-9960
ussels	-9961
▁1938,	-9962
▁2000,	-9963
livorno	-9964
riculum	-9965
▁dangers	-9966
▁upscale	-9967
katherine	-9968
▁greatest	-9969
discipline	-9970
▁magazines	-9971
▁curriculum	-9972
▁dimensions	-9973
▁qualifying	-9974
▁renovations	-9975
▁observational	-9976
inf	-9977
▁wo	-9978
ajji	-9979
hall	-9980
▁23.	-9981
▁rah	-9982
court	-9983
isted	-9984
▁ramp	-9985
▁tend	-9986
peking	-9987
▁3,600	-9988
▁bhaji	-9989
▁garay	-9990
▁landl	-9991
▁qatar	-9992
▁revis	-9993
▁grains	-9994
▁samara	-9995
▁slater	-9996
▁decline	-9997
▁monterey	-9998
▁childhood	-9999
▁extremely	-10000
▁marketing	-10001
▁privately	-10002
▁recognize	-10003
▁triangular	-10004
▁accompanied	-10005
▁constituent	-10006
▁clevelanders	-10007
▁characterized	-10008
)'	-10009
gps	-10010
▁(;	-10011
▁2-	-10012
ecks	-10013
glas	-10014
nedy	-10015
▁73%	-10016
ianza	-10017
third	-10018
▁drop	-10019
▁mail	-10020
▁rnav	-10021
edonia	-10022
modern	-10023
rovers	-10024
▁girls	-10025
▁alphab	-10026
▁armies	-10027
▁battal	-10028
▁manage	-10029
european	-10030
▁2009–10	-10031
▁alianza	-10032
▁boiling	-10033
▁confron	-10034
▁dispute	-10035
▁kennedy	-10036
▁sharing	-10037
▁physical	-10038
▁steaming	-10039
▁caledonia	-10040
▁certified	-10041
▁procedure	-10042
▁publication	-10043
-04	-10044
cor	-10045
urf	-10046
who	-10047
▁iv	-10048
ving	-10049
album	-10050
facts	-10051
utsch	-10052
yssey	-10053
▁buck	-10054
▁joka	-10055
▁pulp	-10056
▁weak	-10057
called	-10058
closed	-10059
▁1878,	-10060
▁1897.	-10061
▁akari	-10062
▁alpha	-10063
▁eddie	-10064
▁heads	-10065
▁holds	-10066
▁numer	-10067
▁tried	-10068
▁edward	-10069
▁emisja	-10070
▁assumed	-10071
▁builder	-10072
▁guitars	-10073
▁odyssey	-10074
▁steamed	-10075
▁trained	-10076
▁2004–05,	-10077
▁dynamics	-10078
▁mckinley	-10079
▁encircled	-10080
▁oppenheim	-10081
▁preparing	-10082
▁abradabing	-10083
▁parkerburg	-10084
▁reappointed	-10085
)',	-10086
dem	-10087
gor	-10088
▁hü	-10089
ersk	-10090
note	-10091
ugal	-10092
agrus	-10093
asius	-10094
ezing	-10095
veget	-10096
▁(16.	-10097
▁1820	-10098
▁arms	-10099
▁giov	-10100
▁okra	-10101
▁poly	-10102
▁skip	-10103
injals	-10104
▁3.187	-10105
▁grave	-10106
▁hemib	-10107
▁trint	-10108
olithic	-10109
▁2007–0	-10110
▁2013–1	-10111
▁alfons	-10112
▁macher	-10113
▁terong	-10114
▁closest	-10115
▁flanked	-10116
▁gourami	-10117
▁maccone	-10118
▁returns	-10119
▁seating	-10120
▁snapper	-10121
▁soaking	-10122
▁wrapper	-10123
▁brinjals	-10124
▁culinary	-10125
▁portugal	-10126
▁skipjack	-10127
vegetables	-10128
▁eggplants	-10129
▁pangasius	-10130
▁squeezing	-10131
▁creativity	-10132
▁hemibagrus	-10133
▁interested	-10134
▁volunteers	-10135
▁independently	-10136
72	-10137
caa	-10138
atte	-10139
omer	-10140
önch	-10141
▁nix	-10142
▁rup	-10143
▁ush	-10144
30000	-10145
eyard	-10146
onist	-10147
▁barb	-10148
▁budd	-10149
▁guat	-10150
▁isle	-10151
▁stab	-10152
ausura	-10153
englad	-10154
raised	-10155
▁1852.	-10156
▁1940,	-10157
▁abuse	-10158
▁mönch	-10159
gations	-10160
▁chance	-10161
▁dawson	-10162
▁enable	-10163
iousness	-10164
▁blanche	-10165
▁peasant	-10166
▁weapons	-10167
currently	-10168
▁buddhist	-10169
▁critical	-10170
engladbach	-10171
▁dependent	-10172
▁nominated	-10173
▁developers	-10174
▁reflective	-10175
▁generations	-10176
▁agricultural	-10177
▁mönchengladbach	-10178
hd	-10179
-2,	-10180
cha	-10181
fre	-10182
iki	-10183
ups	-10184
–2.	-10185
▁gm	-10186
000-	-10187
aris	-10188
unes	-10189
▁kon	-10190
felix	-10191
icity	-10192
▁unic	-10193
▁unif	-10194
▁urdu	-10195
illion	-10196
udders	-10197
chronos	-10198
▁adding	-10199
▁anders	-10200
▁eleven	-10201
▁grande	-10202
▁josiah	-10203
▁unable	-10204
examples	-10205
▁douglas	-10206
▁joining	-10207
▁surgeon	-10208
▁boarding	-10209
▁headquar	-10210
▁unicorns	-10211
▁effectively	-10212
▁indonesians	-10213
▁oppenheimer	-10214
▁associazione	-10215
▁reunification	-10216
.6	-10217
▁cz	-10218
-500	-10219
achi	-10220
elia	-10221
iley	-10222
poin	-10223
▁dil	-10224
▁fdr	-10225
eters	-10226
thias	-10227
ungen	-10228
▁ersk	-10229
andrew	-10230
▁5,000	-10231
▁czech	-10232
▁image	-10233
▁scher	-10234
▁tuned	-10235
▁badges	-10236
▁divide	-10237
▁lancer	-10238
▁lyrics	-10239
▁milton	-10240
▁pulled	-10241
▁compton	-10242
▁erskine	-10243
▁asserted	-10244
▁foremost	-10245
▁matthias	-10246
▁shipyard	-10247
▁intergang	-10248
▁controvers	-10249
▁refurbished	-10250
▁contributions	-10251
▁62	-10252
▁lt	-10253
gely	-10254
icia	-10255
▁20%	-10256
guard	-10257
order	-10258
▁amaz	-10259
▁cres	-10260
▁oclc	-10261
▁sohc	-10262
columb	-10263
▁obama	-10264
▁oblig	-10265
▁zones	-10266
▁dealer	-10267
▁equity	-10268
▁facing	-10269
▁thread	-10270
▁alphabet	-10271
▁crescent	-10272
▁probably	-10273
▁communist	-10274
▁spreading	-10275
▁complaints	-10276
▁allegations	-10277
)-	-10278
def	-10279
fed	-10280
▁ic	-10281
892)	-10282
onth	-10283
skiy	-10284
ukes	-10285
▁0.3	-10286
▁16-	-10287
▁bbc	-10288
ivist	-10289
texas	-10290
▁1002	-10291
▁1867	-10292
▁hier	-10293
▁ncaa	-10294
ensity	-10295
octave	-10296
onthly	-10297
▁dukes	-10298
▁25,000	-10299
▁muscat	-10300
students	-10301
▁tunings	-10302
▁olbersia	-10303
▁religion	-10304
▁bimonthly	-10305
▁birthyear	-10306
▁distinctly	-10307
▁07	-10308
anes	-10309
anna	-10310
etov	-10311
otak	-10312
went	-10313
clean	-10314
nesen	-10315
point	-10316
radar	-10317
▁peru	-10318
▁rust	-10319
▁1933,	-10320
▁franç	-10321
▁telec	-10322
▁undis	-10323
landers	-10324
▁guatem	-10325
▁krylya	-10326
▁poster	-10327
▁severe	-10328
▁vinson	-10329
▁2013–14	-10330
▁arnesen	-10331
▁hawkins	-10332
▁sovetov	-10333
cleanhead	-10334
▁bradshaw	-10335
▁contents	-10336
▁antioquia	-10337
▁backstage	-10338
▁battalion	-10339
▁docklands	-10340
▁favourite	-10341
▁attendance	-10342
▁automotive	-10343
▁sovietskiy	-10344
▁undisclosed	-10345
▁entrepreneurial	-10346
lz	-10347
-15	-10348
-32	-10349
mag	-10350
tec	-10351
▁99	-10352
pedo	-10353
ulsa	-10354
wolf	-10355
▁116	-10356
▁350	-10357
▁500	-10358
▁sad	-10359
▁1863	-10360
access	-10361
▁1956.	-10362
▁1972)	-10363
▁1984.	-10364
▁booth	-10365
▁necks	-10366
▁ports	-10367
▁tulsa	-10368
onymous	-10369
▁barack	-10370
▁emphas	-10371
▁facade	-10372
▁gather	-10373
▁hennes	-10374
▁leases	-10375
▁choices	-10376
▁hosting	-10377
▁uprising	-10378
▁wheelbase	-10379
▁components	-10380
▁guitarists	-10381
sn	-10382
-07	-10383
div	-10384
ska	-10385
too	-10386
▁(−	-10387
encv	-10388
tany	-10389
▁lod	-10390
▁nob	-10391
▁odd	-10392
quity	-10393
▁holl	-10394
▁sits	-10395
▁tail	-10396
▁decor	-10397
▁titan	-10398
denmark	-10399
izabeth	-10400
▁10,000	-10401
▁bypass	-10402
▁deploy	-10403
encváros	-10404
▁2010–11	-10405
▁anymore	-10406
▁karachi	-10407
▁lodging	-10408
▁outdoor	-10409
▁brittany	-10410
▁preceded	-10411
▁conquered	-10412
▁varieties	-10413
▁promotional	-10414
▁marketplaces	-10415
▁participants	-10416
61	-10417
100	-10418
chi	-10419
life	-10420
vich	-10421
train	-10422
▁boys	-10423
▁cinc	-10424
▁gabl	-10425
▁lars	-10426
innati	-10427
preted	-10428
▁2017.	-10429
▁enemy	-10430
▁trace	-10431
▁desert	-10432
▁teamed	-10433
japanese	-10434
▁library	-10435
▁tourist	-10436
▁valencia	-10437
▁nicknamed	-10438
▁cincinnati	-10439
▁interpreted	-10440
');	-10441
'."	-10442
aman	-10443
ento	-10444
here	-10445
ogie	-10446
sige	-10447
sing	-10448
▁640	-10449
▁prs	-10450
▁srl	-10451
agher	-10452
ashon	-10453
chili	-10454
creat	-10455
wound	-10456
▁1857	-10457
▁1972	-10458
▁baby	-10459
▁bhar	-10460
▁duke	-10461
▁jews	-10462
▁nurt	-10463
▁raab	-10464
▁sige	-10465
▁sunn	-10466
ifiers	-10467
oredom	-10468
▁brace	-10469
▁brian	-10470
▁guess	-10471
▁medal	-10472
▁myths	-10473
▁boogie	-10474
▁celtic	-10475
▁gibson	-10476
▁lucite	-10477
▁mackie	-10478
▁settle	-10479
▁vashon	-10480
▁waters	-10481
oberliga	-10482
▁belgian	-10483
▁boredom	-10484
▁cognate	-10485
▁factors	-10486
▁flatter	-10487
▁pickups	-10488
▁suppose	-10489
▁1997–99,	-10490
▁hollomen	-10491
▁resident	-10492
▁synthpop	-10493
▁versions	-10494
creatively	-10495
▁comprises	-10496
▁converted	-10497
▁gallagher	-10498
▁nurturing	-10499
▁unwilling	-10500
▁amplifiers	-10501
▁formerteam	-10502
▁complicated	-10503
▁fingerboard	-10504
▁photographer	-10505
▁industriousness	-10506
sw	-10507
ify	-10508
sem	-10509
▁eg	-10510
▁eu	-10511
ieth	-10512
lies	-10513
raer	-10514
wers	-10515
▁225	-10516
▁3–2	-10517
aging	-10518
agons	-10519
odied	-10520
▁0.11	-10521
▁coin	-10522
▁guar	-10523
▁mega	-10524
▁pors	-10525
97.","	-10526
arabic	-10527
▁1959.	-10528
▁derek	-10529
▁sanco	-10530
▁(1892)	-10531
ontology	-10532
▁besides	-10533
▁burnham	-10534
▁embraer	-10535
▁exposed	-10536
▁persian	-10537
▁porsche	-10538
▁accepted	-10539
▁alagoano	-10540
▁jacobean	-10541
▁sancocho	-10542
▁naturally	-10543
▁abstracted	-10544
▁terminated	-10545
▁singaporean	-10546
▁paleontology	-10547
900	-10548
dyn	-10549
=1).	-10550
cing	-10551
ijun	-10552
▁30,	-10553
▁fen	-10554
▁kue	-10555
ortun	-10556
snack	-10557
▁milt	-10558
▁rené	-10559
filled	-10560
nering	-10561
rysler	-10562
▁ephem	-10563
▁jajan	-10564
▁munch	-10565
▁pasar	-10566
ashkert	-10567
dynamic	-10568
▁dusted	-10569
▁famile	-10570
▁gabler	-10571
▁joanna	-10572
▁kaisar	-10573
▁transl	-10574
▁acclaim	-10575
▁contact	-10576
▁finding	-10577
▁newsome	-10578
▁osborne	-10579
▁relijun	-10580
▁shelley	-10581
▁chrysler	-10582
▁munchies	-10583
▁opportun	-10584
▁payloads	-10585
▁richmond	-10586
▁alashkert	-10587
▁bodyguard	-10588
▁danielson	-10589
▁detective	-10590
▁garnering	-10591
▁prediction	-10592
▁projectors	-10593
▁fragmentary	-10594
▁provisionally	-10595
bas	-10596
mez	-10597
rica	-10598
▁#23	-10599
▁sie	-10600
henge	-10601
kusen	-10602
▁0.15	-10603
▁1846	-10604
▁merc	-10605
▁tech	-10606
ecting	-10607
lights	-10608
ultane	-10609
▁1848,	-10610
▁bayer	-10611
▁dream	-10612
▁scope	-10613
▁width	-10614
▁commit	-10615
▁failure	-10616
▁granite	-10617
▁brussels	-10618
▁painting	-10619
▁referring	-10620
▁simultane	-10621
▁encouraged	-10622
▁leverkusen	-10623
▁stonehenge	-10624
ikh	-10625
ils	-10626
ñar	-10627
ogun	-10628
roit	-10629
▁abi	-10630
▁bom	-10631
ñarol	-10632
▁1862	-10633
▁accr	-10634
▁anth	-10635
▁leis	-10636
▁pray	-10637
making	-10638
▁funct	-10639
▁highs	-10640
finally	-10641
written	-10642
▁bomber	-10643
▁fairly	-10644
▁johann	-10645
▁rivals	-10646
▁sauces	-10647
▁detroit	-10648
▁farmers	-10649
▁largely	-10650
▁pressed	-10651
▁designer	-10652
▁incorpor	-10653
▁informal	-10654
▁discontin	-10655
▁elizabeth	-10656
▁perception	-10657
▁paleolithic	-10658
▁headquartered	-10659
-50	-10660
cut	-10661
aiss	-10662
inor	-10663
mons	-10664
onto	-10665
▁amé	-10666
▁dak	-10667
▁ign	-10668
doria	-10669
mouth	-10670
▁1850	-10671
▁caul	-10672
▁cull	-10673
▁owen	-10674
aissance	-10675
▁américa	-10676
▁cancell	-10677
▁toronto	-10678
▁accuracy	-10679
▁potatoes	-10680
▁spending	-10681
▁renaissance	-10682
▁globalization	-10683
▁simultaneously	-10684
aa	-10685
mr	-10686
ww	-10687
ude	-10688
▁mg	-10689
.6–7	-10690
avic	-10691
ioli	-10692
mult	-10693
▁(30	-10694
▁(8,	-10695
▁(9,	-10696
▁6–7	-10697
▁isi	-10698
▁len	-10699
▁ore	-10700
▁ott	-10701
▁sup	-10702
canic	-10703
genre	-10704
ourne	-10705
▁nita	-10706
▁swim	-10707
etable	-10708
whiggs	-10709
▁2,702	-10710
▁2,777	-10711
▁disco	-10712
▁peter	-10713
▁(8,865	-10714
▁(9,111	-10715
▁copper	-10716
▁tenure	-10717
▁wiener	-10718
▁yarkov	-10719
▁estates	-10720
▁leisure	-10721
▁ottoman	-10722
▁weighed	-10723
▁allowing	-10724
▁mainline	-10725
▁presided	-10726
▁timetable	-10727
▁yarkovsky	-10728
▁recordhead	-10729
▁surrendered	-10730
▁accidentally	-10731
qb	-10732
té	-10733
ικ	-10734
amo	-10735
ián	-10736
inds	-10737
▁5–4	-10738
▁din	-10739
▁boot	-10740
▁legs	-10741
erning	-10742
escent	-10743
espace	-10744
▁costs	-10745
▁favor	-10746
▁himal	-10747
▁joint	-10748
▁merit	-10749
▁spoil	-10750
▁behalf	-10751
▁carmel	-10752
▁contra	-10753
▁passes	-10754
▁temple	-10755
▁holland	-10756
▁periods	-10757
▁peñarol	-10758
▁revived	-10759
▁restored	-10760
▁shipment	-10761
▁somerset	-10762
▁adolescent	-10763
▁concerning	-10764
▁spiritshadow	-10765
ər	-10766
939	-10767
893,	-10768
anct	-10769
ipad	-10770
uart	-10771
▁aux	-10772
▁ont	-10773
eleon	-10774
emark	-10775
sight	-10776
▁0.3%	-10777
▁jett	-10778
iveros	-10779
▁1949,	-10780
▁pages	-10781
▁sanct	-10782
simmons	-10783
▁hardin	-10784
▁occurs	-10785
▁traces	-10786
republic	-10787
▁collins	-10788
▁helipad	-10789
▁meeting	-10790
▁perkins	-10791
▁rebuilt	-10792
▁seconda	-10793
▁swimming	-10794
▁viscount	-10795
▁chameleon	-10796
▁ontiveros	-10797
▁formername	-10798
▁redesigned	-10799
▁ministerial	-10800
▁foundationplace	-10801
333	-10802
hem	-10803
gans	-10804
irts	-10805
thur	-10806
▁buc	-10807
fifth	-10808
▁(177	-10809
▁hour	-10810
bourne	-10811
▁param	-10812
▁rural	-10813
▁sides	-10814
english	-10815
▁arthur	-10816
▁organs	-10817
▁telugu	-10818
▁bearing	-10819
▁extinct	-10820
▁1997.","	-10821
▁claiming	-10822
▁colombia	-10823
▁marriage	-10824
▁publicity	-10825
▁positioned	-10826
▁alternatively	-10827
sd	-10828
zh	-10829
dec	-10830
log	-10831
lok	-10832
row	-10833
upt	-10834
▁74	-10835
▁eb	-10836
eled	-10837
eman	-10838
ftba	-10839
luss	-10840
▁ltd	-10841
▁crab	-10842
▁decl	-10843
▁fdgb	-10844
▁lock	-10845
▁ryan	-10846
▁toss	-10847
▁vlog	-10848
▁void	-10849
antage	-10850
▁1985.	-10851
▁ansch	-10852
▁asilo	-10853
▁dftba	-10854
800,000	-10855
▁beaten	-10856
▁suárez	-10857
▁funding	-10858
▁militar	-10859
▁panther	-10860
▁vlogger	-10861
▁hamilton	-10862
discovered	-10863
▁anschluss	-10864
▁dictators	-10865
▁existence	-10866
▁precovery	-10867
▁sudenburg	-10868
▁millimetres	-10869
▁discontinued	-10870
816	-10871
kit	-10872
wen	-10873
itis	-10874
ivia	-10875
▁33%	-10876
▁67%	-10877
▁rum	-10878
aneer	-10879
ceeds	-10880
gence	-10881
▁1793	-10882
▁amen	-10883
▁mind	-10884
▁poll	-10885
▁1977,	-10886
acement	-10887
daggett	-10888
iflower	-10889
▁arches	-10890
▁paneer	-10891
▁capable	-10892
▁commons	-10893
▁contest	-10894
▁corresp	-10895
▁invited	-10896
▁millenn	-10897
▁surpass	-10898
▁bharjita	-10899
▁entirely	-10900
▁prisoner	-10901
▁proceeds	-10902
▁sampdoria	-10903
▁therefore	-10904
▁divergence	-10905
▁victorious	-10906
▁cauliflower	-10907
▁discussions	-10908
▁inaugurated	-10909
.20	-10910
sav	-10911
▁bü	-10912
▁ko	-10913
eros	-10914
hais	-10915
▁39.	-10916
","10	-10917
","11	-10918
throp	-10919
▁boom	-10920
onnais	-10921
▁1853,	-10922
▁basin	-10923
▁colts	-10924
growing	-10925
▁batsoy	-10926
▁helmut	-10927
▁output	-10928
▁shogun	-10929
▁michele	-10930
▁neither	-10931
▁pinhais	-10932
▁planter	-10933
▁turkmen	-10934
▁lyonnais	-10935
▁panthers	-10936
▁alligator	-10937
▁objective	-10938
▁alexandria	-10939
▁discussing	-10940
ôn	-10941
ako	-10942
ifs	-10943
×10	-10944
▁(0	-10945
/29,	-10946
/34,	-10947
ônio	-10948
polar	-10949
▁(896	-10950
▁brut	-10951
▁dian	-10952
▁mint	-10953
▁seah	-10954
anelle	-10955
▁(1773	-10956
▁1962,	-10957
▁1964.	-10958
▁2,939	-10959
▁5,816	-10960
▁nicol	-10961
▁rocha	-10962
acional	-10963
uggling	-10964
▁11/29,	-10965
▁16/34,	-10966
▁motifs	-10967
▁neptun	-10968
▁sparta	-10969
▁staten	-10970
▁surged	-10971
▁taller	-10972
▁antônio	-10973
▁pereira	-10974
▁seceded	-10975
▁asuncion	-10976
▁flanders	-10977
▁seahawks	-10978
▁theaters	-10979
▁cubanelle	-10980
▁associação	-10981
▁categories	-10982
▁acceleration	-10983
ccn	-10984
dia	-10985
utt	-10986
▁(14	-10987
▁757	-10988
▁lan	-10989
▁ubi	-10990
4,000	-10991
lauer	-10992
lydia	-10993
▁0.13	-10994
▁10.9	-10995
▁arla	-10996
▁cite	-10997
▁epid	-10998
▁erie	-10999
▁lccn	-11000
▁marg	-11001
▁ukra	-11002
antist	-11003
apollo	-11004
ulated	-11005
▁andal	-11006
▁drunk	-11007
▁flash	-11008
▁grade	-11009
▁lingu	-11010
▁volvo	-11011
central	-11012
▁buenos	-11013
▁dilett	-11014
▁dynast	-11015
▁groton	-11016
▁shadow	-11017
▁tribes	-11018
▁zanano	-11019
hispanic	-11020
▁edwards	-11021
antistica	-11022
unication	-11023
▁boosters	-11024
▁creating	-11025
▁jettison	-11026
▁travelled	-11027
▁laboratory	-11028
▁unexpectedly	-11029
▁dilettantistica	-11030
ti	-11031
cup	-11032
▁cu	-11033
iyev	-11034
leen	-11035
lent	-11036
▁aus	-11037
▁fly	-11038
▁orn	-11039
▁rob	-11040
agari	-11041
handl	-11042
olina	-11043
wheat	-11044
▁arbi	-11045
▁suji	-11046
irloom	-11047
lentil	-11048
▁1949.	-11049
▁acted	-11050
▁aging	-11051
▁bases	-11052
▁hosts	-11053
▁optim	-11054
▁paulo	-11055
▁batman	-11056
▁flours	-11057
▁masoor	-11058
semolina	-11059
▁article	-11060
▁spinach	-11061
▁torpedo	-11062
addiction	-11063
▁eggplant	-11064
▁heirloom	-11065
handlungen	-11066
▁buckwheat	-11067
▁efficient	-11068
▁commencing	-11069
▁thereafter	-11070
▁successively	-11071
▁internacional	-11072
▁mathematischen	-11073
mu	-11074
yō	-11075
bct	-11076
eri	-11077
acht	-11078
▁vet	-11079
ippon	-11080
▁13.5	-11081
▁1830	-11082
▁bora	-11083
▁huge	-11084
▁kept	-11085
▁sbct	-11086
▁seet	-11087
landes	-11088
▁1998)	-11089
▁arepa	-11090
▁kazan	-11091
▁nihon	-11092
▁trend	-11093
figured	-11094
▁brevet	-11095
delaware	-11096
football	-11097
▁vetches	-11098
encompass	-11099
▁applying	-11100
▁homeland	-11101
▁seetours	-11102
▁amenities	-11103
▁shogunate	-11104
▁repeatedly	-11105
encompassing	-11106
▁discoveries	-11107
át	-11108
1.0	-11109
85)	-11110
iks	-11111
rat	-11112
▁cw	-11113
▁lv	-11114
aida	-11115
atia	-11116
hmet	-11117
ilia	-11118
ogao	-11119
oper	-11120
otta	-11121
–42,	-11122
▁1-4	-11123
▁35.	-11124
▁50.	-11125
▁hms	-11126
▁joy	-11127
▁nue	-11128
▁wet	-11129
achau	-11130
hawks	-11131
▁atop	-11132
▁bars	-11133
▁canc	-11134
▁doll	-11135
▁oecd	-11136
▁1860)	-11137
▁arròs	-11138
▁hogao	-11139
▁jorge	-11140
▁marry	-11141
grounds	-11142
inished	-11143
ivename	-11144
ramento	-11145
▁dachau	-11146
▁expend	-11147
▁mehmet	-11148
▁patter	-11149
▁wonton	-11150
▁greaves	-11151
▁learned	-11152
▁license	-11153
▁nicolás	-11154
▁primera	-11155
▁pursued	-11156
▁reforms	-11157
▁request	-11158
landesrat	-11159
▁1938–42,	-11160
▁baseball	-11161
▁chapters	-11162
▁founders	-11163
▁holdings	-11164
▁landlady	-11165
▁premises	-11166
▁shoulder	-11167
▁commenced	-11168
▁deceiving	-11169
▁expanding	-11170
▁patterson	-11171
▁shipments	-11172
▁slaughter	-11173
▁represents	-11174
▁campgrounds	-11175
▁flossenburg	-11176
▁efxeinoupoli	-11177
▁characteristic	-11178
/.	-11179
>,	-11180
cs	-11181
mor	-11182
odi	-11183
ppo	-11184
tur	-11185
unj	-11186
▁64	-11187
1101	-11188
arct	-11189
arks	-11190
flex	-11191
odes	-11192
opak	-11193
▁ble	-11194
▁büt	-11195
▁pik	-11196
.2011	-11197
asoll	-11198
oulds	-11199
rible	-11200
seyin	-11201
▁34.3	-11202
▁cori	-11203
▁flap	-11204
▁fled	-11205
▁ruth	-11206
bhajji	-11207
landed	-11208
parika	-11209
ugreek	-11210
▁(1025	-11211
▁(1130	-11212
▁1968.	-11213
▁devan	-11214
▁forty	-11215
▁güner	-11216
▁hilmi	-11217
▁kamer	-11218
▁piano	-11219
▁servo	-11220
arctica	-11221
lokopak	-11222
▁chilis	-11223
▁moulds	-11224
▁pakodi	-11225
▁pikora	-11226
▁ponako	-11227
▁rodrig	-11228
▁torino	-11229
▁visits	-11230
asollasa	-11231
ographic	-11232
▁bhajiya	-11233
▁bütüner	-11234
▁carmela	-11235
▁hüseyin	-11236
▁function	-11237
▁variable	-11238
lokopakara	-11239
▁coriander	-11240
▁fenugreek	-11241
▁retroflex	-11242
▁antarctica	-11243
▁devanagari	-11244
▁occurrence	-11245
▁progressed	-11246
▁communities	-11247
▁manasollasa	-11248
▁mountainous	-11249
▁resignation	-11250
▁transliterated	-11251
zá	-11252
-47	-11253
hes	-11254
lez	-11255
san	-11256
game	-11257
stre	-11258
▁2.3	-11259
▁seg	-11260
1,300	-11261
arabb	-11262
orial	-11263
zález	-11264
▁sugo	-11265
▁tons	-11266
▁vera	-11267
▁wich	-11268
▁marks	-11269
▁spans	-11270
▁(71,300	-11271
▁wichita	-11272
arabbiata	-11273
▁sequence	-11274
▁telecomm	-11275
▁friendship	-11276
▁classification	-11277
eb	-11278
1.4	-11279
ecy	-11280
hot	-11281
som	-11282
asol	-11283
dris	-11284
kick	-11285
▁320	-11286
▁anr	-11287
▁enr	-11288
arnil	-11289
phecy	-11290
▁1912	-11291
▁1942	-11292
▁ebaw	-11293
▁kamp	-11294
▁vast	-11295
inense	-11296
stöger	-11297
▁1850,	-11298
▁chris	-11299
▁odris	-11300
▁rubin	-11301
▁2005–0	-11302
▁curved	-11303
▁decide	-11304
▁jarnil	-11305
▁lector	-11306
▁rahman	-11307
▁sylvia	-11308
▁tennis	-11309
northern	-11310
▁aidasol	-11311
▁bolivia	-11312
▁decides	-11313
▁elector	-11314
▁panucci	-11315
▁felicity	-11316
▁freefolk	-11317
▁generous	-11318
▁prophecy	-11319
▁sunstone	-11320
▁survives	-11321
alexandria	-11322
portuguese	-11323
▁andalusia	-11324
▁contracts	-11325
▁guatemala	-11326
▁neighbour	-11327
▁rodriguez	-11328
▁surviving	-11329
▁accrington	-11330
▁descendant	-11331
▁unfinished	-11332
▁reconstruction	-11333
45	-11334
mk	-11335
ray	-11336
rum	-11337
apuy	-11338
enix	-11339
morc	-11340
plát	-11341
skva	-11342
▁162	-11343
▁bin	-11344
▁gov	-11345
meter	-11346
orico	-11347
▁1843	-11348
▁1952	-11349
▁bore	-11350
▁dise	-11351
▁dres	-11352
▁ties	-11353
▁vert	-11354
▁1972.	-11355
▁bronx	-11356
▁carne	-11357
▁elder	-11358
▁enlar	-11359
▁susan	-11360
borough	-11361
merrill	-11362
plátano	-11363
▁bigger	-11364
▁dinamo	-11365
▁maduro	-11366
▁molida	-11367
▁tasked	-11368
morcilla	-11369
▁kalapuy	-11370
▁package	-11371
▁signals	-11372
▁thought	-11373
▁uniform	-11374
▁dominant	-11375
▁michelle	-11376
scriptions	-11377
▁himalayan	-11378
.)	-11379
uj	-11380
lah	-11381
nga	-11382
oco	-11383
▁'5	-11384
▁um	-11385
aire	-11386
brow	-11387
gare	-11388
▁16%	-11389
▁2-0	-11390
empin	-11391
iteit	-11392
▁acqu	-11393
▁cruc	-11394
▁kova	-11395
▁luke	-11396
▁suff	-11397
▁zach	-11398
alison	-11399
arenga	-11400
awatte	-11401
garejo	-11402
lahoma	-11403
urable	-11404
▁1961.	-11405
▁higgs	-11406
▁lizzy	-11407
▁resep	-11408
▁sammy	-11409
▁vocal	-11410
barboza	-11411
germany	-11412
maempin	-11413
▁chains	-11414
▁forest	-11415
▁maurer	-11416
▁ocampo	-11417
▁revues	-11418
▁seaman	-11419
▁cecilia	-11420
▁mesilla	-11421
▁newhall	-11422
▁parthen	-11423
▁plaster	-11424
▁slipped	-11425
▁ukraine	-11426
▁invented	-11427
▁oklahoma	-11428
▁alvarenga	-11429
▁beautiful	-11430
▁melgarejo	-11431
▁premiered	-11432
▁sedawatte	-11433
▁delicacies	-11434
▁measurable	-11435
▁ventilation	-11436
▁universiteit	-11437
▁personalities	-11438
59	-11439
bit	-11440
syt	-11441
▁$3	-11442
▁yu	-11443
gart	-11444
▁1.4	-11445
▁2.6	-11446
▁24.	-11447
▁ayr	-11448
▁bap	-11449
▁vfb	-11450
200).	-11451
ichar	-11452
sized	-11453
sytia	-11454
▁1054	-11455
▁1941	-11456
▁dick	-11457
▁lent	-11458
▁marc	-11459
▁purp	-11460
▁zeus	-11461
abella	-11462
evelop	-11463
ricted	-11464
▁homes	-11465
▁pedro	-11466
▁rocky	-11467
▁stutt	-11468
knowled	-11469
▁(1009)	-11470
▁comets	-11471
▁lacked	-11472
▁lawyer	-11473
▁parent	-11474
▁rasher	-11475
▁sarnie	-11476
▁(1200).	-11477
▁andaluc	-11478
▁unitary	-11479
▁forsytia	-11480
▁tensions	-11481
▁upgrades	-11482
▁acknowled	-11483
▁longhorns	-11484
▁stuttgart	-11485
▁vegetable	-11486
▁engagement	-11487
▁optionally	-11488
▁restricted	-11489
olo	-11490
sto	-11491
2)'.	-11492
eted	-11493
olds	-11494
▁asp	-11495
▁lap	-11496
eraal	-11497
marsh	-11498
metre	-11499
monte	-11500
olish	-11501
reeks	-11502
track	-11503
▁3–0.	-11504
▁fash	-11505
▁gamb	-11506
▁haji	-11507
▁hess	-11508
▁horn	-11509
85)","	-11510
▁1856.	-11511
▁1857.	-11512
▁1989,	-11513
▁geoff	-11514
▁scale	-11515
▁towns	-11516
ergyman	-11517
inating	-11518
▁amelia	-11519
▁angled	-11520
▁greeks	-11521
▁inline	-11522
▁worker	-11523
generaal	-11524
military	-11525
▁2007–08	-11526
▁diantha	-11527
▁fashion	-11528
▁hilbert	-11529
▁markets	-11530
▁painted	-11531
▁pattern	-11532
▁revisal	-11533
000002)'.	-11534
–1885)","	-11535
▁castilla	-11536
▁govtrack	-11537
▁monteith	-11538
▁clergyman	-11539
▁graveyard	-11540
▁parthenia	-11541
▁congresses	-11542
▁conventions	-11543
▁cooperative	-11544
▁crowborough	-11545
▁renomination	-11546
▁(1793–1885)","	-11547
06	-11548
.),	-11549
.12	-11550
.22	-11551
.50	-11552
.78	-11553
8.'	-11554
cac	-11555
gem	-11556
wac	-11557
▁hs	-11558
-119	-11559
aker	-11560
bhar	-11561
gery	-11562
mkis	-11563
ogne	-11564
once	-11565
otas	-11566
▁748	-11567
▁atc	-11568
▁dog	-11569
▁mki	-11570
▁sqn	-11571
india	-11572
kshak	-11573
piled	-11574
tieth	-11575
▁bern	-11576
▁encl	-11577
▁giul	-11578
▁hump	-11579
berras	-11580
bharat	-11581
ionics	-11582
itudes	-11583
stroke	-11584
tender	-11585
ueling	-11586
utions	-11587
ximity	-11588
▁1988)	-11589
▁awacs	-11590
▁burma	-11591
▁dubai	-11592
▁hegem	-11593
.2008.'	-11594
gorbach	-11595
kunming	-11596
rakshak	-11597
▁2008.'	-11598
▁badged	-11599
▁beriev	-11600
▁movies	-11601
▁strike	-11602
▁stuart	-11603
airfield	-11604
▁dakotas	-11605
▁divides	-11606
▁monthly	-11607
▁packets	-11608
▁partner	-11609
▁surgery	-11610
▁tilting	-11611
▁2016.","	-11612
▁airbases	-11613
▁annually	-11614
▁aristocr	-11615
▁avionics	-11616
▁gonzález	-11617
▁inflight	-11618
▁junction	-11619
▁optimize	-11620
▁serviced	-11621
▁sixtieth	-11622
▁stopover	-11623
▁airfields	-11624
▁andalucía	-11625
▁canberras	-11626
▁proximity	-11627
▁refueling	-11628
▁assistance	-11629
▁fourteenth	-11630
▁satellites	-11631
▁stockpiled	-11632
▁environmental	-11633
▁identification	-11634
▁interpretation	-11635
ɔl	-11636
box	-11637
imo	-11638
zig	-11639
atch	-11640
cema	-11641
rett	-11642
▁247	-11643
▁5.4	-11644
66391	-11645
elika	-11646
oslav	-11647
▁1905	-11648
▁deck	-11649
▁indo	-11650
▁taun	-11651
intent	-11652
▁2000.	-11653
▁emble	-11654
▁siege	-11655
▁steam	-11656
▁theod	-11657
▁anchor	-11658
▁fabric	-11659
▁reggae	-11660
▁rejoin	-11661
▁trucks	-11662
▁unless	-11663
▁conduct	-11664
▁gaining	-11665
▁lettuce	-11666
▁seminary	-11667
▁underwent	-11668
▁publishers	-11669
▁businessman	-11670
▁governments	-11671
▁territorial	-11672
▁recognizable	-11673
óp	-11674
411	-11675
iek	-11676
alks	-11677
igur	-11678
tred	-11679
▁(77	-11680
▁4.3	-11681
▁cwb	-11682
aluna	-11683
iques	-11684
▁1870	-11685
▁58.0	-11686
▁74.0	-11687
▁avus	-11688
▁kerb	-11689
▁span	-11690
afonso	-11691
atures	-11692
iecode	-11693
iverse	-11694
ópolis	-11695
▁(2.28	-11696
▁(2.91	-11697
▁apart	-11698
▁bohem	-11699
▁enorm	-11700
▁flown	-11701
▁genoa	-11702
▁goods	-11703
▁(1,411	-11704
▁coffee	-11705
▁colani	-11706
▁gender	-11707
▁gruppo	-11708
▁offset	-11709
▁harvest	-11710
▁mineral	-11711
▁thinned	-11712
▁torture	-11713
alligator	-11714
enchanted	-11715
▁aidaluna	-11716
▁demolish	-11717
▁differed	-11718
▁instance	-11719
▁politiek	-11720
▁rebodied	-11721
▁giulietta	-11722
▁olympique	-11723
▁parlement	-11724
▁adaptation	-11725
▁reconstruct	-11726
▁scandinavia	-11727
▁synchronized	-11728
▁florianópolis	-11729
uv	-11730
868	-11731
diz	-11732
skl	-11733
▁00	-11734
▁08	-11735
1000	-11736
hang	-11737
rije	-11738
▁(13	-11739
▁20.	-11740
andez	-11741
▁2024	-11742
▁hung	-11743
▁sskl	-11744
▁1935,	-11745
▁clock	-11746
▁depos	-11747
▁holes	-11748
▁stead	-11749
▁vrije	-11750
cession	-11751
january	-11752
▁escort	-11753
▁mughan	-11754
▁effects	-11755
▁matched	-11756
amsterdam	-11757
▁anything	-11758
▁clausura	-11759
▁unlikely	-11760
▁associate	-11761
▁challinor	-11762
▁concession	-11763
▁enormously	-11764
▁importance	-11765
▁confronting	-11766
▁probability	-11767
ea	-11768
8-3	-11769
921	-11770
vas	-11771
▁"(	-11772
.101	-11773
alke	-11774
diam	-11775
yros	-11776
▁139	-11777
▁17-	-11778
▁814	-11779
▁enh	-11780
▁pic	-11781
▁4.16	-11782
▁atal	-11783
▁aviv	-11784
▁coar	-11785
▁lose	-11786
▁nash	-11787
▁repr	-11788
▁troy	-11789
▁vote	-11790
▁ways	-11791
helena	-11792
×63×63	-11793
▁0.14.	-11794
▁10.2°	-11795
▁5-8-3	-11796
▁angel	-11797
▁bible	-11798
▁cesar	-11799
▁chlor	-11800
▁grape	-11801
▁hence	-11802
▁lobby	-11803
.","101	-11804
▁arabic	-11805
▁clinic	-11806
▁faster	-11807
▁incarn	-11808
▁saxoph	-11809
▁almyros	-11810
▁archive	-11811
▁enemies	-11812
▁focuses	-11813
▁onstage	-11814
▁precise	-11815
▁schalke	-11816
▁71×63×63	-11817
▁atalanta	-11818
▁birthday	-11819
▁findings	-11820
▁attendant	-11821
▁companion	-11822
▁functions	-11823
▁supposedly	-11824
▁differences	-11825
▁ellipsoidal	-11826
▁maintaining	-11827
▁accommodation	-11828
▁md	-11829
0,00	-11830
1.25	-11831
wald	-11832
▁88.	-11833
compl	-11834
espie	-11835
pages	-11836
▁(198	-11837
▁0.01	-11838
▁2.8-	-11839
▁taxi	-11840
ancing	-11841
barkov	-11842
▁alloy	-11843
▁apron	-11844
▁elite	-11845
ighters	-11846
▁deport	-11847
▁drying	-11848
▁libert	-11849
▁riding	-11850
completed	-11851
overnment	-11852
sstartyear	-11853
▁gillespie	-11854
▁indicates	-11855
▁riverside	-11856
amatriciana	-11857
▁increasing	-11858
▁educational	-11859
▁numberofpages	-11860
asy	-11861
▁bou	-11862
enger	-11863
ensis	-11864
inced	-11865
ivden	-11866
▁$23,	-11867
▁apul	-11868
▁jump	-11869
▁vide	-11870
▁1988.	-11871
▁serge	-11872
▁canvas	-11873
▁celery	-11874
▁edited	-11875
▁facult	-11876
curitiba	-11877
moreover	-11878
▁raymond	-11879
▁enrolled	-11880
▁fighters	-11881
▁apulensis	-11882
▁kilometre	-11883
▁cartograph	-11884
▁confederation	-11885
7.8	-11886
añol	-11887
baan	-11888
laas	-11889
mash	-11890
prob	-11891
▁(50	-11892
▁175	-11893
▁ips	-11894
▁kee	-11895
▁kum	-11896
▁poz	-11897
apart	-11898
ipzig	-11899
liner	-11900
oming	-11901
▁'54,	-11902
▁0.1%	-11903
▁1099	-11904
▁3.5-	-11905
▁chip	-11906
▁koog	-11907
▁vila	-11908
▁wins	-11909
▁wore	-11910
served	-11911
▁2012)	-11912
▁amoco	-11913
▁klaas	-11914
▁lifts	-11915
▁lists	-11916
▁obser	-11917
▁emblem	-11918
▁execut	-11919
▁handle	-11920
▁maimed	-11921
▁vander	-11922
▁violet	-11923
probably	-11924
▁crucial	-11925
▁español	-11926
▁ipswich	-11927
▁leipzig	-11928
▁raising	-11929
▁remarks	-11930
▁singles	-11931
▁watcher	-11932
▁willard	-11933
▁charlton	-11934
▁mulliner	-11935
▁pressure	-11936
▁socially	-11937
▁wherever	-11938
▁pollution	-11939
▁capability	-11940
▁cityserved	-11941
▁equivalent	-11942
▁recommends	-11943
▁inspiration	-11944
▁photographed	-11945
στ	-11946
587	-11947
umi	-11948
....	-11949
auth	-11950
eron	-11951
jose	-11952
paty	-11953
ário	-11954
▁cao	-11955
▁gum	-11956
ameal	-11957
icing	-11958
ingly	-11959
▁1932	-11960
▁bull	-11961
▁buzz	-11962
▁lviv	-11963
▁rohn	-11964
inegro	-11965
malade	-11966
orized	-11967
pector	-11968
rought	-11969
things	-11970
▁binds	-11971
▁enact	-11972
▁kings	-11973
marshal	-11974
▁cloake	-11975
▁frança	-11976
▁speech	-11977
sidekick	-11978
▁(2005).	-11979
▁drought	-11980
▁exhibit	-11981
▁monster	-11982
▁peameal	-11983
▁shorter	-11984
catherine	-11985
mentioned	-11986
smuggling	-11987
▁integral	-11988
▁prompted	-11989
▁triangle	-11990
▁conferred	-11991
▁essential	-11992
▁favouring	-11993
▁inspector	-11994
▁marmalade	-11995
▁offerings	-11996
▁aristocrat	-11997
▁calculation	-11998
▁largestcity	-11999
▁inofficewhile	-12000
1),	-12001
ayn	-12002
ceo	-12003
eto	-12004
usa	-12005
anci	-12006
asan	-12007
atin	-12008
colo	-12009
shot	-12010
▁38.	-12011
▁ara	-12012
▁euc	-12013
▁mob	-12014
/2010	-12015
again	-12016
liiga	-12017
ícolo	-12018
▁(197	-12019
▁acre	-12020
▁goes	-12021
▁mond	-12022
iopian	-12023
▁1963,	-12024
▁firpo	-12025
▁janci	-12026
anciale	-12027
ilisers	-12028
outside	-12029
▁roland	-12030
▁suffix	-12031
authored	-12032
▁carbure	-12033
▁cologne	-12034
▁gearbox	-12035
▁rudders	-12036
▁tonight	-12037
▁budapest	-12038
▁increase	-12039
▁numbered	-12040
▁officers	-12041
▁2009/2010	-12042
▁guanciale	-12043
▁reprinted	-12044
▁discovering	-12045
▁stabilisers	-12046
▁reconstructed	-12047
117	-12048
esh	-12049
gas	-12050
kar	-12051
337,	-12052
8854	-12053
=1/2	-12054
elis	-12055
hole	-12056
uity	-12057
unti	-12058
varo	-12059
ович	-12060
▁19.	-12061
▁255	-12062
▁elk	-12063
aemia	-12064
alami	-12065
uster	-12066
▁byas	-12067
▁leuk	-12068
▁slow	-12069
117921	-12070
amares	-12071
barrel	-12072
dizion	-12073
linary	-12074
ravaro	-12075
rovich	-12076
▁1907.	-12077
▁1910,	-12078
▁1945.	-12079
▁1974.	-12080
▁brady	-12081
▁dizzy	-12082
▁helps	-12083
minster	-12084
▁1.337,	-12085
▁74.","	-12086
▁crutch	-12087
▁giunti	-12088
▁russel	-12089
▁sayama	-12090
▁sheikh	-12091
assisted	-12092
mathemat	-12093
▁9788854	-12094
▁amazing	-12095
▁rhythms	-12096
romagnoli	-12097
▁detailed	-12098
▁grandson	-12099
▁gulfport	-12100
▁martello	-12101
117921.","	-12102
dizionario	-12103
▁calamares	-12104
▁leukaemia	-12105
▁trumpeter	-12106
mathematics	-12107
▁fabricated	-12108
▁presidents	-12109
▁controversy	-12110
▁saxophonist	-12111
▁westminster	-12112
▁accompanists	-12113
▁instructions	-12114
▁relationship	-12115
▁александрович	-12116
▁aleksandrovich	-12117
ās	-12118
ōs	-12119
▁ē	-12120
bia	-12121
kia	-12122
áss	-12123
óðr	-12124
▁vé	-12125
▁ōs	-12126
21,7	-12127
indh	-12128
▁270	-12129
▁ása	-12130
ansuz	-12131
escot	-12132
ounce	-12133
▁arct	-12134
▁fulf	-12135
▁hamp	-12136
▁odin	-12137
▁tang	-12138
▁vili	-12139
▁yard	-12140
ackles	-12141
divine	-12142
igious	-12143
ovakia	-12144
▁aired	-12145
▁alley	-12146
▁berry	-12147
▁cited	-12148
▁duane	-12149
▁lucas	-12150
▁magik	-12151
▁negot	-12152
density	-12153
▁(121,7	-12154
▁couldn	-12155
▁eldest	-12156
▁gescot	-12157
▁juvent	-12158
▁labour	-12159
▁oceans	-12160
▁asynjur	-12161
▁autonom	-12162
▁deserts	-12163
▁efforts	-12164
▁ertegun	-12165
passenger	-12166
▁hostages	-12167
management	-12168
▁averaging	-12169
▁hampshire	-12170
▁solutions	-12171
▁eliminating	-12172
▁northwestern	-12173
▁cartographers	-12174
740	-12175
iak	-12176
▁sj	-12177
-24.	-12178
mich	-12179
ords	-12180
seud	-12181
▁(34	-12182
▁fou	-12183
▁gil	-12184
▁jay	-12185
▁job	-12186
bibbo	-12187
eight	-12188
given	-12189
irond	-12190
luigi	-12191
peror	-12192
▁cosh	-12193
▁fant	-12194
▁gior	-12195
▁guer	-12196
▁lott	-12197
ernsey	-12198
osetti	-12199
▁3,800	-12200
▁34–12	-12201
▁afore	-12202
▁diane	-12203
▁krist	-12204
▁pseud	-12205
▁stair	-12206
▁28-24.	-12207
▁jumped	-12208
▁panama	-12209
▁passer	-12210
▁sequel	-12211
changing	-12212
irondack	-12213
reported	-12214
▁101,000	-12215
▁ceramic	-12216
▁element	-12217
▁jackets	-12218
▁sailors	-12219
▁tackles	-12220
operation	-12221
▁accurate	-12222
▁delivery	-12223
▁guernsey	-12224
▁kristina	-12225
▁countless	-12226
▁eaglebank	-12227
▁romanized	-12228
▁staircase	-12229
▁touchdowns	-12230
▁affiliation	-12231
▁quarterback	-12232
▁aforementioned	-12233
mn	-12234
íg	-12235
area	-12236
pent	-12237
▁1.6	-12238
▁arn	-12239
▁pío	-12240
acode	-12241
aguar	-12242
burns	-12243
enues	-12244
▁1992	-12245
▁bone	-12246
▁mand	-12247
▁shal	-12248
▁want	-12249
▁wise	-12250
atoire	-12251
▁1,587	-12252
▁1942,	-12253
▁calls	-12254
▁dolph	-12255
▁rayel	-12256
▁sands	-12257
▁shown	-12258
▁credit	-12259
▁philip	-12260
▁wessex	-12261
▁assessed	-12262
▁operates	-12263
▁pakistan	-12264
▁speakers	-12265
▁spectrum	-12266
▁eponymous	-12267
▁valentine	-12268
▁specialized	-12269
ém	-12270
-90	-12271
6.1	-12272
9.1	-12273
uhi	-12274
vaz	-12275
adém	-12276
wise	-12277
▁0–0	-12278
▁4.2	-12279
▁gir	-12280
▁nam	-12281
▁nes	-12282
elder	-12283
ening	-12284
epsth	-12285
isbury	-12286
yright	-12287
▁1997.	-12288
▁ahvaz	-12289
▁cisco	-12290
antares	-12291
opelika	-12292
▁1960–6	-12293
▁darwen	-12294
▁mutual	-12295
▁nesuhi	-12296
▁resurf	-12297
▁sentry	-12298
▁enjoyed	-12299
▁advisors	-12300
▁configur	-12301
▁spectral	-12302
▁brigadier	-12303
▁copyright	-12304
▁observers	-12305
▁salisbury	-12306
▁waterfall	-12307
▁youthclub	-12308
▁generating	-12309
▁playground	-12310
▁restaurant	-12311
▁categorized	-12312
▁instrumental	-12313
▁industrialised	-12314
sur	-12315
0.10	-12316
afen	-12317
gnus	-12318
▁360	-12319
▁sic	-12320
iller	-12321
▁0.20	-12322
▁1610	-12323
▁1803	-12324
▁kore	-12325
▁subm	-12326
▁surn	-12327
joseph	-12328
shafen	-12329
▁1864.	-12330
▁caves	-12331
▁metro	-12332
▁roads	-12333
▁cygnus	-12334
▁lowest	-12335
▁prague	-12336
▁revive	-12337
▁custard	-12338
▁hunters	-12339
▁1861.","	-12340
▁atlantis	-12341
▁enclosed	-12342
▁favoured	-12343
▁incident	-12344
▁reserves	-12345
▁stirring	-12346
▁attempted	-12347
▁cultivation	-12348
▁ferencváros	-12349
▁incarnation	-12350
▁individuals	-12351
▁friedrichshafen	-12352
8±	-12353
σα	-12354
075	-12355
30±	-12356
abd	-12357
naw	-12358
nel	-12359
▁68	-12360
4.14	-12361
8.51	-12362
alda	-12363
belg	-12364
hera	-12365
kirk	-12366
last	-12367
made	-12368
okie	-12369
phot	-12370
shev	-12371
±1.1	-12372
▁llp	-12373
▁ppp	-12374
▁upd	-12375
1.58±	-12376
9±0.0	-12377
etown	-12378
iling	-12379
nawal	-12380
uting	-12381
▁"300	-12382
▁'...	-12383
▁0.03	-12384
▁4.44	-12385
▁89.1	-12386
▁alix	-12387
▁felt	-12388
▁gtcr	-12389
▁mips	-12390
▁ngun	-12391
▁pole	-12392
▁tell	-12393
▁waud	-12394
▁wett	-12395
740±0.	-12396
formed	-12397
produc	-12398
±0.04.	-12399
▁2013)	-12400
▁erupt	-12401
.","300	-12402
30±8.51	-12403
9±0.02.	-12404
belgium	-12405
sheviks	-12406
▁91.58±	-12407
▁barony	-12408
▁berger	-12409
▁chords	-12410
▁cruces	-12411
▁dayton	-12412
▁lazard	-12413
▁moelis	-12414
▁restor	-12415
▁sagent	-12416
▁update	-12417
kirkland	-12418
partners	-12419
▁agustín	-12420
▁bimodal	-12421
▁galilei	-12422
▁oceanic	-12423
▁phoenix	-12424
▁quarles	-12425
▁spitzer	-12426
740±0.001	-12427
▁(121,770	-12428
▁89.1±1.1	-12429
▁ribicoff	-12430
▁detailers	-12431
▁ngunnawal	-12432
▁occulting	-12433
▁redevelop	-12434
▁revealing	-12435
photometric	-12436
▁0.19±0.02.	-12437
▁0.20±0.04.	-12438
▁88.30±8.51	-12439
▁91.58±4.14	-12440
▁bolsheviks	-12441
▁moderately	-12442
▁photometer	-12443
▁23.740±0.001	-12444
▁alixpartners	-12445
-(	-12446
17	-12447
ré	-12448
yl	-12449
▁д	-12450
los	-12451
osa	-12452
vlm	-12453
▁54	-12454
1)-(	-12455
=2).	-12456
acus	-12457
arev	-12458
elin	-12459
fors	-12460
icio	-12461
info	-12462
onné	-12463
real	-12464
tron	-12465
uebl	-12466
▁#16	-12467
▁34,	-12468
▁cdr	-12469
▁fog	-12470
▁kos	-12471
▁mcs	-12472
▁spr	-12473
▁wei	-12474
liang	-12475
▁chow	-12476
▁glad	-12477
▁weil	-12478
10,000	-12479
action	-12480
ariski	-12481
edited	-12482
master	-12483
udonné	-12484
▁aeros	-12485
▁aless	-12486
▁andré	-12487
▁flags	-12488
▁henri	-12489
▁igusa	-12490
▁josef	-12491
▁opens	-12492
▁puebl	-12493
▁query	-12494
▁scrip	-12495
▁smale	-12496
atlanta	-12497
chandra	-12498
inguish	-12499
usually	-12500
▁aliyev	-12501
▁cartan	-12502
▁harish	-12503
▁latest	-12504
▁morley	-12505
▁panels	-12506
▁theory	-12507
▁traded	-12508
phillips	-12509
▁ahlfors	-12510
▁avenues	-12511
▁hungary	-12512
▁kosarev	-12513
▁presnya	-12514
▁prussia	-12515
▁shalika	-12516
▁skating	-12517
▁upgrade	-12518
▁zariski	-12519
▁brighter	-12520
▁customer	-12521
▁alternate	-12522
▁dieudonné	-12523
▁gladiator	-12524
▁substance	-12525
▁aleksandre	-12526
▁associates	-12527
▁preparatory	-12528
▁modification	-12529
▁observatoire	-12530
▁configuration	-12531
36	-12532
:1	-12533
/3/	-12534
16/	-12535
304	-12536
45.	-12537
50)	-12538
doi	-12539
ran	-12540
wis	-12541
▁td	-12542
▁wb	-12543
..18	-12544
.175	-12545
.188	-12546
1955	-12547
2007	-12548
284,	-12549
2868	-12550
enes	-12551
ilty	-12552
▁(22	-12553
▁18;	-12554
▁21°	-12555
▁24;	-12556
▁27°	-12557
▁44;	-12558
▁49.	-12559
▁52.	-12560
▁64;	-12561
▁bce	-12562
▁fes	-12563
-13).	-12564
-24),	-12565
0.0°,	-12566
1.023	-12567
28±1.	-12568
4.0°,	-12569
8.0°,	-12570
9.0°)	-12571
:2007	-12572
carry	-12573
laved	-12574
queen	-12575
stown	-12576
–188.	-12577
▁(1):	-12578
▁0.31	-12579
▁0.8%	-12580
▁1.7%	-12581
▁18.9	-12582
▁2,67	-12583
▁2.66	-12584
▁2176	-12585
▁39.3	-12586
▁eman	-12587
▁eric	-12588
▁hymn	-12589
▁neas	-12590
▁phen	-12591
▁reis	-12592
▁sino	-12593
▁−73.	-12594
▁−78.	-12595
..188.	-12596
/3/3).	-12597
:10.10	-12598
imetry	-12599
nesium	-12600
▁"1036	-12601
▁(2176	-12602
▁(4,29	-12603
▁2024,	-12604
▁4,000	-12605
▁9.24,	-12606
▁9.45.	-12607
▁epsth	-12608
▁hoped	-12609
▁samar	-12610
▁smass	-12611
▁solid	-12612
▁withd	-12613
.2006.1	-12614
28±1.38	-12615
bibcode	-12616
imetric	-12617
radiant	-12618
▁10.297	-12619
▁guilty	-12620
▁napole	-12621
▁trojan	-12622
▁vacate	-12623
-12-16),	-12624
.","1036	-12625
multiple	-12626
▁0.02868	-12627
▁1.2–4.1	-12628
▁10.313,	-12629
▁amongst	-12630
▁chamber	-12631
▁citizen	-12632
▁pilcher	-12633
▁spectra	-12634
▁synthes	-12635
▁−79.0°)	-12636
:10.1016/	-12637
=3-/3/3).	-12638
▁(190.0°,	-12639
▁(1924-10	-12640
▁(198.0°,	-12641
▁(2024-10	-12642
▁(214.0°,	-12643
▁0.374097	-12644
▁10.31304	-12645
▁175–188.	-12646
▁abducted	-12647
▁accorded	-12648
▁crossing	-12649
▁drawings	-12650
▁enslaved	-12651
▁insisted	-12652
▁−73.0°),	-12653
▁−78.0°),	-12654
..188..175	-12655
▁(0.374097	-12656
▁10.31284,	-12657
▁2,670,000	-12658
▁festering	-12659
▁magnesium	-12660
▁silicates	-12661
▁temporary	-12662
▁weathered	-12663
▁(4,290,000	-12664
▁34,800,000	-12665
▁34.28±1.38	-12666
▁35,000,000	-12667
▁56,000,000	-12668
▁nationwide	-12669
▁parameters	-12670
▁sacramento	-12671
.2006.11.023	-12672
polarimetric	-12673
▁(56,000,000	-12674
▁correlation	-12675
▁polarimetry	-12676
▁symbolizing	-12677
▁correlations	-12678
▁photometrist	-12679
▁polarization	-12680
▁(1924-10-24),	-12681
▁(2024-10-13).	-12682
▁(2176-12-16),	-12683
▁orthopyroxenes	-12684
wi	-12685
igs	-12686
iji	-12687
pot	-12688
anni	-12689
bell	-12690
cult	-12691
ders	-12692
igam	-12693
quez	-12694
▁2.1	-12695
▁lav	-12696
preme	-12697
▁kent	-12698
▁send	-12699
stones	-12700
▁1986.	-12701
▁algae	-12702
▁anglo	-12703
▁giles	-12704
▁lying	-12705
▁niche	-12706
▁crater	-12707
avations	-12708
▁outward	-12709
▁samaras	-12710
▁supreme	-12711
▁survived	-12712
▁keystones	-12713
▁producing	-12714
▁protected	-12715
▁successes	-12716
▁beneficial	-12717
▁separation	-12718
▁williamson	-12719
tı	-12720
cht	-12721
oel	-12722
ugo	-12723
ıtı	-12724
▁kr	-12725
▁şe	-12726
bele	-12727
leri	-12728
odar	-12729
plant	-12730
uming	-12731
usive	-12732
▁1,16	-12733
▁duty	-12734
▁easy	-12735
tredia	-12736
▁1922.	-12737
▁1955.	-12738
▁1987)	-12739
▁anıtı	-12740
▁faced	-12741
▁jimmy	-12742
▁şehit	-12743
ishment	-12744
▁hapoel	-12745
▁justin	-12746
▁legion	-12747
▁munich	-12748
▁repeat	-12749
▁doorway	-12750
▁epidemi	-12751
▁turning	-12752
▁whether	-12753
ativename	-12754
▁honoring	-12755
▁phenomen	-12756
equivalent	-12757
▁blackburn	-12758
▁personnel	-12759
▁şehitleri	-12760
▁socialists	-12761
▁contributed	-12762
▁alternativename	-12763
°)	-12764
ôi	-12765
öt	-12766
ни	-12767
10°	-12768
15:	-12769
2.4	-12770
aea	-12771
dys	-12772
gei	-12773
hdt	-12774
iej	-12775
kla	-12776
vlt	-12777
°).	-12778
άγε	-12779
άλα	-12780
σσα	-12781
▁#1	-12782
▁1°	-12783
▁8°	-12784
▁sf	-12785
11):	-12786
2,87	-12787
5,13	-12788
51°,	-12789
55°,	-12790
aeth	-12791
ikôi	-12792
obox	-12793
ocal	-12794
occo	-12795
odot	-12796
orto	-12797
reng	-12798
unks	-12799
ágei	-12800
άγει	-12801
▁10°	-12802
▁29%	-12803
▁fio	-12804
▁göt	-12805
▁ili	-12806
▁pdl	-12807
.1.20	-12808
2.4):	-12809
acles	-12810
barre	-12811
iosis	-12812
overe	-12813
×1015	-12814
▁(160	-12815
▁0.32	-12816
▁10°.	-12817
▁1492	-12818
▁29°.	-12819
▁72°)	-12820
▁boat	-12821
▁diag	-12822
▁dmit	-12823
▁hawk	-12824
▁keck	-12825
▁plea	-12826
▁tilt	-12827
▁ussr	-12828
","107	-12829
","300	-12830
french	-12831
lawful	-12832
odotus	-12833
oporto	-12834
public	-12835
sphere	-12836
tingen	-12837
άλασσα	-12838
ελάγει	-12839
▁0.160	-12840
▁1993,	-12841
▁1995.	-12842
▁4.844	-12843
▁75°).	-12844
▁85,13	-12845
▁axial	-12846
▁iliad	-12847
▁klaus	-12848
▁moons	-12849
▁panth	-12850
▁shake	-12851
▁ícolo	-12852
atement	-12853
camilla	-12854
ispiece	-12855
melipal	-12856
rentina	-12857
τλαντικ	-12858
▁(+51°,	-12859
▁(+55°,	-12860
▁(32,87	-12861
▁0.294.	-12862
▁arctic	-12863
▁astdys	-12864
▁cybele	-12865
▁expect	-12866
▁ironic	-12867
▁maciej	-12868
▁pivden	-12869
▁reused	-12870
▁streng	-12871
1.5×1015	-12872
assuming	-12873
boogaard	-12874
columbus	-12875
georgian	-12876
historic	-12877
includes	-12878
scranton	-12879
▁1.211):	-12880
▁2008–09	-12881
▁alberto	-12882
▁atlases	-12883
▁circles	-12884
▁heavens	-12885
▁infobox	-12886
▁marchis	-12887
▁meiosis	-12888
▁morocco	-12889
▁oceanus	-12890
▁pangaea	-12891
▁pelágei	-12892
▁rolling	-12893
▁surname	-12894
▁trinary	-12895
▁ushered	-12896
▁weaving	-12897
▁actually	-12898
▁diagrams	-12899
▁eventual	-12900
▁heracles	-12901
▁lighting	-12902
▁pointing	-12903
▁slovakia	-12904
▁suitable	-12905
▁unlawful	-12906
.1.202.4):	-12907
aethiopian	-12908
▁aeroporto	-12909
▁afternoon	-12910
▁ephemeris	-12911
▁göttingen	-12912
▁herodotus	-12913
▁materials	-12914
▁southward	-12915
▁spaceport	-12916
▁superhero	-12917
▁85,133,000	-12918
▁atlantikôi	-12919
▁contractor	-12920
▁fiorentina	-12921
▁(32,870,000	-12922
▁approximate	-12923
▁excavations	-12924
▁interfering	-12925
▁panthalassa	-12926
▁frontispiece	-12927
▁inauguration	-12928
▁mythological	-12929
▁consequential	-12930
▁longitudinally	-12931
▁supercontinent	-12932
▁understatement	-12933
ев	-12934
ма	-12935
ми	-12936
ри	-12937
чу	-12938
-69	-12939
ahl	-12940
aks	-12941
ffe	-12942
▁98	-12943
▁чу	-12944
cted	-12945
igny	-12946
iran	-12947
uani	-12948
евич	-12949
▁(3,	-12950
▁26-	-12951
▁26.	-12952
▁gun	-12953
▁дми	-12954
ollah	-12955
riyev	-12956
маков	-12957
▁116-	-12958
▁nose	-12959
▁shia	-12960
▁text	-12961
erting	-12962
idents	-12963
onduct	-12964
rupted	-12965
риевич	-12966
▁aveng	-12967
▁consc	-12968
▁heinz	-12969
antonio	-12970
ievover	-12971
whisper	-12972
▁hellas	-12973
▁intell	-12974
▁ornate	-12975
▁rupiah	-12976
minister	-12977
riyevich	-12978
ustering	-12979
▁automob	-12980
▁janeiro	-12981
▁чумаков	-12982
▁directed	-12983
▁hegemony	-12984
▁malesani	-12985
▁muhammad	-12986
▁oriental	-12987
▁stronger	-12988
▁veterans	-12989
ievoverona	-12990
throughout	-12991
▁krasnodar	-12992
▁liberties	-12993
▁trademark	-12994
development	-12995
▁discussion	-12996
▁advertising	-12997
▁dmitriyevich	-12998
▁uninterrupted	-12999
.;	-13000
tw	-13001
uà	-13002
ajax	-13003
fide	-13004
inyl	-13005
none	-13006
otto	-13007
rika	-13008
▁klm	-13009
▁mit	-13010
occup	-13011
▁1885	-13012
▁aceb	-13013
▁tonn	-13014
enegro	-13015
fideuà	-13016
▁1861,	-13017
▁aioli	-13018
▁cooks	-13019
▁dated	-13020
▁enabl	-13021
▁inher	-13022
▁noise	-13023
▁perth	-13024
▁plain	-13025
italian	-13026
osexual	-13027
▁amanda	-13028
▁nickel	-13029
▁rolled	-13030
▁sovere	-13031
▁croatia	-13032
▁easyjet	-13033
▁fencing	-13034
▁forever	-13035
▁paprika	-13036
▁risotto	-13037
▁scholar	-13038
▁tonnage	-13039
▁councill	-13040
▁coverage	-13041
▁enhances	-13042
▁orthodox	-13043
▁senators	-13044
osexuality	-13045
▁computing	-13046
▁sovereign	-13047
▁montenegro	-13048
▁consequently	-13049
▁epidemiology	-13050
ру	-13051
arm	-13052
gal	-13053
λος	-13054
▁(4	-13055
▁ms	-13056
-186	-13057
asus	-13058
days	-13059
iago	-13060
orie	-13061
ydar	-13062
▁292	-13063
▁amb	-13064
▁bot	-13065
antom	-13066
comes	-13067
erald	-13068
sions	-13069
trans	-13070
ulton	-13071
▁0.26	-13072
▁deed	-13073
▁unve	-13074
figure	-13075
▁(0.99	-13076
▁1839,	-13077
▁tekla	-13078
▁terry	-13079
▁timel	-13080
british	-13081
chichar	-13082
lontong	-13083
ouncing	-13084
ramboll	-13085
utation	-13086
▁16,000	-13087
▁belong	-13088
▁heydar	-13089
▁korean	-13090
▁mature	-13091
▁sewers	-13092
germanic	-13093
occupied	-13094
▁admiral	-13095
▁calorie	-13096
▁fastest	-13097
▁karpaty	-13098
▁phantom	-13099
▁ramboll	-13100
▁thicker	-13101
fordshire	-13102
▁1863-186	-13103
▁caucasus	-13104
▁meetings	-13105
▁reliable	-13106
▁welcomes	-13107
▁birthdays	-13108
▁venezuela	-13109
nonetheless	-13110
▁earthworks	-13111
▁gatherings	-13112
▁calculations	-13113
▁corporations	-13114
))	-13115
8)	-13116
áz	-13117
ów	-13118
16,	-13119
pet	-13120
ryt	-13121
utc	-13122
▁ud	-13123
:15:	-13124
acia	-13125
irel	-13126
onis	-13127
wind	-13128
▁288	-13129
▁dek	-13130
▁fee	-13131
▁ric	-13132
▁tai	-13133
akrah	-13134
angel	-13135
aunch	-13136
doshi	-13137
elect	-13138
iring	-13139
luent	-13140
▁1933	-13141
▁2880	-13142
▁faro	-13143
▁feed	-13144
▁pros	-13145
▁sank	-13146
:15:16	-13147
plants	-13148
profit	-13149
within	-13150
ázquez	-13151
▁1930)	-13152
▁audio	-13153
▁crest	-13154
▁dacia	-13155
▁demon	-13156
▁innoc	-13157
▁movie	-13158
▁parva	-13159
▁prest	-13160
ificent	-13161
▁abrupt	-13162
▁attica	-13163
▁maiden	-13164
▁pirate	-13165
▁taiwan	-13166
▁bullets	-13167
▁conquer	-13168
▁dollars	-13169
▁extends	-13170
▁spoiler	-13171
▁03:15:16	-13172
▁affluent	-13173
▁advancing	-13174
▁initiated	-13175
▁magnificent	-13176
uf	-13177
íl	-13178
edy	-13179
why	-13180
αντ	-13181
acco	-13182
iras	-13183
obes	-13184
rovi	-13185
saus	-13186
uder	-13187
ílio	-13188
▁203	-13189
▁878	-13190
▁ode	-13191
beque	-13192
deste	-13193
sales	-13194
ubble	-13195
▁(230	-13196
▁(500	-13197
▁1899	-13198
▁21-1	-13199
▁disg	-13200
▁kcal	-13201
▁kick	-13202
▁teen	-13203
either	-13204
meiras	-13205
overty	-13206
prepar	-13207
recipe	-13208
▁(0.91	-13209
▁1858,	-13210
▁blogs	-13211
▁eindh	-13212
▁excur	-13213
▁magic	-13214
▁recur	-13215
▁tread	-13216
▁weave	-13217
obesity	-13218
sausage	-13219
▁'5,000	-13220
▁(3,700	-13221
▁45,000	-13222
▁assert	-13223
▁brasil	-13224
▁busier	-13225
▁camilo	-13226
▁colier	-13227
▁dreams	-13228
▁hesser	-13229
▁itunes	-13230
▁spiced	-13231
▁videos	-13232
barbecue	-13233
roviário	-13234
ulsalami	-13235
▁(21,000	-13236
▁addicts	-13237
▁kilocal	-13238
▁mineiro	-13239
▁netting	-13240
▁olympic	-13241
▁poverty	-13242
▁revised	-13243
▁scaring	-13244
▁soviets	-13245
alvinegro	-13246
inguished	-13247
seasoning	-13248
▁acebílio	-13249
▁barbeque	-13250
▁delicacy	-13251
▁deployed	-13252
▁layering	-13253
▁marketer	-13254
▁nordeste	-13255
▁scenario	-13256
chronister	-13257
commentary	-13258
▁descended	-13259
▁inventors	-13260
▁palmeiras	-13261
▁synthesiz	-13262
▁thickness	-13263
businessmen	-13264
preparation	-13265
republicans	-13266
▁afternoons	-13267
▁astronauts	-13268
▁campinense	-13269
▁excursions	-13270
▁phenomenon	-13271
▁postmodern	-13272
▁suggestive	-13273
▁ferroviário	-13274
▁nominations	-13275
▁kilocalories	-13276
-8	-13277
1,1	-13278
2.0	-13279
emd	-13280
ikk	-13281
tañ	-13282
andt	-13283
ecke	-13284
lima	-13285
▁das	-13286
blatt	-13287
guing	-13288
indío	-13289
ipses	-13290
paisa	-13291
qbool	-13292
queña	-13293
riero	-13294
▁falk	-13295
▁fida	-13296
▁foss	-13297
▁gern	-13298
▁lore	-13299
▁neil	-13300
▁onto	-13301
▁rops	-13302
aralda	-13303
husain	-13304
isting	-13305
tañera	-13306
venile	-13307
weeted	-13308
▁1993.	-13309
▁ahemd	-13310
▁cauca	-13311
▁meals	-13312
▁roger	-13313
▁shast	-13314
▁snake	-13315
▁thigh	-13316
▁valle	-13317
growers	-13318
▁caldas	-13319
▁castor	-13320
▁mining	-13321
▁padova	-13322
▁tolima	-13323
▁trunks	-13324
▁warner	-13325
▁arguing	-13326
▁arriero	-13327
▁grumman	-13328
▁maqbool	-13329
▁quindío	-13330
▁tobacco	-13331
▁tweeted	-13332
▁vázquez	-13333
▁zentral	-13334
▁changing	-13335
▁dolphins	-13336
▁ellipses	-13337
▁exhibits	-13338
▁gernandt	-13339
▁juvenile	-13340
▁juventus	-13341
▁kalapuya	-13342
▁northrop	-13343
▁unveiled	-13344
california	-13345
▁ahemdabad	-13346
▁montañera	-13347
▁risaralda	-13348
▁struggles	-13349
▁antioqueña	-13350
▁biological	-13351
▁dreamworks	-13352
▁techniques	-13353
▁theoretical	-13354
▁zentralblatt	-13355
3,6	-13356
gab	-13357
kee	-13358
5–19	-13359
esta	-13360
rand	-13361
▁raj	-13362
.","3	-13363
gabat	-13364
world	-13365
íguez	-13366
▁108-	-13367
▁1984	-13368
▁virt	-13369
▁warri	-13370
300,000	-13371
chinese	-13372
▁comune	-13373
▁manuel	-13374
▁solely	-13375
▁yearly	-13376
▁aurigny	-13377
▁corners	-13378
▁dischar	-13379
▁pioneer	-13380
▁poaceae	-13381
▁demonstr	-13382
▁maintain	-13383
▁migrants	-13384
▁athletics	-13385
▁rodríguez	-13386
▁permission	-13387
▁participate	-13388
2'	-13389
esy	-13390
lid	-13391
pit	-13392
sam	-13393
uda	-13394
дни	-13395
▁43	-13396
lery	-13397
lves	-13398
mana	-13399
umai	-13400
umed	-13401
whel	-13402
▁150	-13403
▁irv	-13404
▁lse	-13405
▁vim	-13406
acute	-13407
amale	-13408
assed	-13409
oning	-13410
riate	-13411
tense	-13412
tings	-13413
рудни	-13414
▁1101	-13415
▁afro	-13416
▁jahn	-13417
▁laos	-13418
▁whit	-13419
abbrev	-13420
approp	-13421
believ	-13422
pitiya	-13423
▁1906,	-13424
▁66063	-13425
▁aside	-13426
▁bring	-13427
▁franz	-13428
▁ratio	-13429
▁relic	-13430
▁thank	-13431
▁vinyl	-13432
▁write	-13433
derived	-13434
escence	-13435
lvester	-13436
▁1957–5	-13437
▁ensure	-13438
▁felipe	-13439
▁fossil	-13440
▁michal	-13441
▁shumai	-13442
▁vimala	-13443
igammana	-13444
producer	-13445
whelming	-13446
рудников	-13447
▁aviator	-13448
▁bedford	-13449
▁cousins	-13450
▁crosses	-13451
▁cutlery	-13452
▁emperor	-13453
▁intense	-13454
▁moldoff	-13455
▁printed	-13456
▁steuart	-13457
▁ampitiya	-13458
▁courtesy	-13459
▁fittings	-13460
▁inapprop	-13461
▁marrying	-13462
▁trillion	-13463
▁unbeliev	-13464
▁montacute	-13465
▁soccerway	-13466
▁sylvester	-13467
▁tangamale	-13468
abbreviated	-13469
▁alcoholism	-13470
▁benedictan	-13471
▁unoccupied	-13472
▁adolescence	-13473
▁beligammana	-13474
▁benedictine	-13475
▁prestigious	-13476
▁overwhelming	-13477
▁unbelievable	-13478
▁footballfacts	-13479
▁inappropriate	-13480
▁knightsbridge	-13481
109	-13482
efe	-13483
ivo	-13484
nas	-13485
pdl	-13486
soc	-13487
iami	-13488
prim	-13489
rear	-13490
▁2-2	-13491
▁bos	-13492
neill	-13493
raero	-13494
▁bang	-13495
▁efes	-13496
▁grig	-13497
-11-26	-13498
.2011:	-13499
family	-13500
▁astra	-13501
▁foods	-13502
▁miami	-13503
▁sorts	-13504
efeated	-13505
manager	-13506
moldoff	-13507
▁2014–1	-13508
▁afghan	-13509
▁fulton	-13510
ountains	-13511
▁mispron	-13512
▁salford	-13513
▁talents	-13514
▁distract	-13515
▁distress	-13516
▁fighting	-13517
▁holloway	-13518
▁infraero	-13519
▁volcanic	-13520
▁dismissal	-13521
▁maintains	-13522
▁recurring	-13523
▁1863-1864.	-13524
▁2005-11-26	-13525
▁transplant	-13526
▁undefeated	-13527
▁encompasses	-13528
▁mispronouncing	-13529
39	-13530
hu	-13531
3,8	-13532
buz	-13533
gil	-13534
sun	-13535
αλα	-13536
κων	-13537
νος	-13538
▁9-	-13539
00).	-13540
cook	-13541
ijah	-13542
kath	-13543
smed	-13544
unos	-13545
will	-13546
ygen	-13547
αλακ	-13548
▁bhp	-13549
▁gör	-13550
1,130	-13551
allia	-13552
armen	-13553
erick	-13554
esses	-13555
hnaks	-13556
ouras	-13557
rapis	-13558
unchy	-13559
vehic	-13560
κωνστ	-13561
▁1890	-13562
▁1907	-13563
▁aldo	-13564
▁belv	-13565
▁ferr	-13566
▁funk	-13567
▁kera	-13568
▁lagg	-13569
▁mang	-13570
▁merg	-13571
▁nons	-13572
▁rude	-13573
▁staf	-13574
ammann	-13575
buzzer	-13576
destro	-13577
lancer	-13578
leyman	-13579
neider	-13580
nesian	-13581
planes	-13582
worker	-13583
▁1980.	-13584
▁bleed	-13585
▁exner	-13586
▁films	-13587
▁funds	-13588
▁marco	-13589
▁meats	-13590
▁trunc	-13591
▁uncle	-13592
brother	-13593
coronet	-13594
ensical	-13595
ickness	-13596
quentin	-13597
sewhere	-13598
smedrys	-13599
▁(2009)	-13600
▁arnold	-13601
▁cycler	-13602
▁danger	-13603
▁eskath	-13604
▁görmez	-13605
▁hawkes	-13606
▁irvine	-13607
▁leaven	-13608
▁listen	-13609
▁manned	-13610
▁mccook	-13611
▁noises	-13612
▁oxygen	-13613
▁paying	-13614
▁safely	-13615
▁scolds	-13616
▁shasta	-13617
▁thesis	-13618
▁vendor	-13619
▁wounds	-13620
armenian	-13621
missions	-13622
stadinos	-13623
κωνσταντ	-13624
▁burning	-13625
▁crunchy	-13626
▁crystin	-13627
▁defense	-13628
▁demirel	-13629
▁grandpa	-13630
▁iglauer	-13631
▁ignited	-13632
▁marries	-13633
▁phrases	-13634
▁radrian	-13635
▁recount	-13636
▁rotator	-13637
▁smedrys	-13638
▁stavros	-13639
▁telling	-13640
akopoulos	-13641
vehicular	-13642
▁astrapis	-13643
▁dashnaks	-13644
▁keraunos	-13645
▁oculator	-13646
▁precious	-13647
▁süleyman	-13648
▁universe	-13649
destroying	-13650
iographies	-13651
▁airplanes	-13652
▁communion	-13653
▁galleries	-13654
▁laggouras	-13655
▁octagonal	-13656
▁pyramidal	-13657
▁schneider	-13658
▁shattered	-13659
▁truncated	-13660
▁carburetor	-13661
▁caseworker	-13662
▁crystallia	-13663
▁desolation	-13664
▁fulfilling	-13665
▁jettisoned	-13666
▁polynesian	-13667
▁properties	-13668
▁spacewalks	-13669
▁tenderfoot	-13670
▁accommodate	-13671
▁distraction	-13672
▁konstadinos	-13673
▁leavenworth	-13674
▁nonsensical	-13675
▁seasickness	-13676
▁spectacular	-13677
▁unification	-13678
▁staffordshire	-13679
▁extravehicular	-13680
▁geographically	-13681
▁autobiographies	-13682
▁michalakopoulos	-13683
bp	-13684
fm	-13685
lub	-13686
pcc	-13687
éng	-13688
–55	-13689
▁eq	-13690
304,	-13691
chel	-13692
tase	-13693
uing	-13694
–199	-13695
▁$14	-13696
▁(12	-13697
▁226	-13698
▁45%	-13699
▁rté	-13700
▁yah	-13701
abaum	-13702
▁"200	-13703
▁$144	-13704
▁11.2	-13705
▁14.6	-13706
▁baso	-13707
▁eltr	-13708
▁hood	-13709
▁kass	-13710
▁xmas	-13711
brough	-13712
iliary	-13713
ladesh	-13714
ospace	-13715
unning	-13716
▁90–55	-13717
▁escal	-13718
▁ispcc	-13719
▁obata	-13720
.","200	-13721
▁8.304,	-13722
▁euclid	-13723
▁goréng	-13724
▁moment	-13725
▁motion	-13726
▁volunt	-13727
aluation	-13728
▁$141.25	-13729
▁(1900).	-13730
▁canaria	-13731
▁chalair	-13732
▁details	-13733
▁electra	-13734
▁fantasy	-13735
▁missile	-13736
▁sellers	-13737
▁disaster	-13738
▁employer	-13739
▁hellmuth	-13740
▁mainland	-13741
▁santiago	-13742
▁2015/2016	-13743
▁aerospace	-13744
▁auxiliary	-13745
▁debutteam	-13746
▁elevators	-13747
▁fountains	-13748
▁inherited	-13749
▁kassabaum	-13750
▁bangladesh	-13751
▁escalators	-13752
disciplinary	-13753
▁2011.","200	-13754
▁informative	-13755
▁voluntarily	-13756
pronunciation	-13757
▁collaborator	-13758
▁reconfigured	-13759
▁kes	-13760
owner	-13761
▁coma	-13762
ikkaus	-13763
social	-13764
▁1986,	-13765
▁diana	-13766
▁ellin	-13767
▁ghost	-13768
▁lifet	-13769
▁theta	-13770
▁wayne	-13771
annover	-13772
greater	-13773
termann	-13774
▁ceased	-13775
▁intric	-13776
▁pallas	-13777
▁tasman	-13778
▁2014–15	-13779
▁charges	-13780
▁shadows	-13781
▁(1865–19	-13782
▁consumer	-13783
▁upgraded	-13784
▁veikkaus	-13785
▁highlight	-13786
▁contracted	-13787
▁pittermann	-13788
▁professors	-13789
▁opportunity	-13790
▁geographical	-13791
▁veikkausliiga	-13792
oza	-13793
iori	-13794
tyus	-13795
▁"1.	-13796
banon	-13797
ganos	-13798
▁0740	-13799
▁anal	-13800
▁noun	-13801
▁safe	-13802
▁1838,	-13803
▁95–75	-13804
▁holon	-13805
▁maize	-13806
pacific	-13807
william	-13808
▁permit	-13809
▁cardiff	-13810
▁desmond	-13811
▁lebanon	-13812
▁mendoza	-13813
▁méganos	-13814
▁problem	-13815
▁ranches	-13816
▁udinese	-13817
▁resigned	-13818
▁1.697.","	-13819
▁arlington	-13820
submissions	-13821
▁interstate	-13822
▁posteriori	-13823
▁timeliness	-13824
▁abbreviated	-13825
▁originality	-13826
ēz	-13827
ła	-13828
'.'	-13829
.17	-13830
.21	-13831
.38	-13832
.42	-13833
1.9	-13834
904	-13835
:44	-13836
aua	-13837
dör	-13838
fon	-13839
jci	-13840
kal	-13841
nia	-13842
pav	-13843
roe	-13844
vir	-13845
zek	-13846
zwi	-13847
▁vd	-13848
agod	-13849
atni	-13850
bean	-13851
czuk	-13852
elēz	-13853
grim	-13854
ontr	-13855
twór	-13856
vern	-13857
wony	-13858
wski	-13859
▁44'	-13860
▁igs	-13861
▁ksi	-13862
▁spö	-13863
barni	-13864
dörmi	-13865
emnic	-13866
entów	-13867
icion	-13868
magik	-13869
okoła	-13870
tofon	-13871
wiata	-13872
▁(5.2	-13873
▁1097	-13874
▁1864	-13875
▁1934	-13876
▁3:44	-13877
▁bisc	-13878
▁czer	-13879
▁edda	-13880
▁inna	-13881
▁juno	-13882
▁tony	-13883
▁zpav	-13884
archit	-13885
emisja	-13886
inside	-13887
jciech	-13888
majori	-13889
mother	-13890
prolog	-13891
saving	-13892
vertik	-13893
▁1801.	-13894
▁1869,	-13895
▁accum	-13896
▁amput	-13897
▁craft	-13898
▁jagod	-13899
▁kontr	-13900
▁skirt	-13901
▁vesta	-13902
▁város	-13903
▁wagle	-13904
emnicza	-13905
grimage	-13906
kaliber	-13907
lubisie	-13908
twórnia	-13909
▁banach	-13910
▁bosski	-13911
▁bucure	-13912
▁camino	-13913
▁elijah	-13914
▁marika	-13915
▁minuty	-13916
▁monroe	-13917
▁peaked	-13918
▁poziom	-13919
▁solent	-13920
▁steaua	-13921
mondelēz	-13922
tofonika	-13923
▁astraea	-13924
▁belvita	-13925
▁biscuit	-13926
▁charted	-13927
▁customs	-13928
▁dookoła	-13929
▁honored	-13930
▁machina	-13931
▁ostatni	-13932
▁rappers	-13933
▁vessels	-13934
socialist	-13935
▁czerwony	-13936
▁giovanni	-13937
▁jagodina	-13938
▁kontroli	-13939
▁specific	-13940
▁wojciech	-13941
▁abolition	-13942
▁amputated	-13943
▁bodystyle	-13944
▁disappear	-13945
▁europeans	-13946
▁pseudonym	-13947
▁separated	-13948
▁waglewski	-13949
▁pilgrimage	-13950
▁tajemnicza	-13951
▁extravertik	-13952
▁paktofonika	-13953
▁permanently	-13954
▁producentów	-13955
▁replacement	-13956
▁trinidadian	-13957
▁városmajori	-13958
▁phonographic	-13959
▁participation	-13960
ha	-13961
lan	-13962
ulk	-13963
▁nb	-13964
ayas	-13965
dent	-13966
half	-13967
ocor	-13968
odys	-13969
peed	-13970
pton	-13971
rios	-13972
wort	-13973
–190	-13974
▁476	-13975
20000	-13976
draft	-13977
ucing	-13978
▁1897	-13979
▁arian	-13980
▁hired	-13981
▁kesel	-13982
▁opium	-13983
▁shane	-13984
▁steak	-13985
▁2000–0	-13986
▁conced	-13987
▁ideals	-13988
▁neodys	-13989
▁poetry	-13990
orsville	-13991
▁cartoon	-13992
▁disease	-13993
▁trapped	-13994
▁chancell	-13995
▁acclaimed	-13996
▁attacking	-13997
▁collision	-13998
▁effective	-13999
▁impacting	-14000
▁preferred	-14001
▁salvadoran	-14002
▁arianespace	-14003
+1	-14004
887	-14005
gir	-14006
hib	-14007
ová	-14008
owa	-14009
ادي	-14010
adao	-14011
ancy	-14012
anim	-14013
ista	-14014
kerg	-14015
reis	-14016
▁5–1	-14017
▁acm	-14018
▁ads	-14019
▁ist	-14020
▁mcn	-14021
aroun	-14022
ugged	-14023
▁ando	-14024
▁ella	-14025
▁iowa	-14026
▁swit	-14027
ardson	-14028
▁1859,	-14029
▁66391	-14030
▁carib	-14031
▁tadao	-14032
kergren	-14033
▁brands	-14034
▁cowper	-14035
▁teleph	-14036
arounová	-14037
starting	-14038
▁altered	-14039
▁breakup	-14040
▁centaur	-14041
▁germans	-14042
▁milonga	-14043
▁rolando	-14044
▁sixteen	-14045
▁veteran	-14046
▁colorado	-14047
▁financed	-14048
richardson	-14049
▁ankergren	-14050
▁criticism	-14051
▁bankruptcy	-14052
▁mechanised	-14053
▁motherwell	-14054
▁reputation	-14055
▁contributing	-14056
▁turkmenistan	-14057
46	-14058
-01	-14059
9.4	-14060
ykh	-14061
aver	-14062
dale	-14063
hern	-14064
itor	-14065
soon	-14066
udal	-14067
▁2.7	-14068
▁brl	-14069
▁ccr	-14070
▁1946.	-14071
▁stain	-14072
▁truth	-14073
▁worst	-14074
▁2012–13	-14075
▁deutsch	-14076
▁maurice	-14077
hernández	-14078
▁chernykh	-14079
▁entering	-14080
▁presenter	-14081
▁samtredia	-14082
▁stainless	-14083
▁percentage	-14084
▁registered	-14085
▁illustrator	-14086
▁scholarship	-14087
bie	-14088
net	-14089
ypt	-14090
▁mí	-14091
chus	-14092
inas	-14093
▁ask	-14094
night	-14095
▁berg	-14096
▁hypo	-14097
▁lith	-14098
▁tabl	-14099
fusion	-14100
thouse	-14101
▁1980,	-14102
▁actor	-14103
▁carlo	-14104
▁fetch	-14105
▁zamba	-14106
parchus	-14107
▁1942–4	-14108
▁1974),	-14109
▁creamy	-14110
▁gambit	-14111
▁minist	-14112
▁rubber	-14113
▁seagle	-14114
▁seized	-14115
▁whitey	-14116
▁1974–75	-14117
▁finance	-14118
americana	-14119
christian	-14120
▁assisted	-14121
▁teenager	-14122
▁improving	-14123
fusiongenre	-14124
▁hipparchus	-14125
abhandlungen	-14126
▁connections	-14127
517	-14128
eed	-14129
eff	-14130
urs	-14131
pler	-14132
▁tuc	-14133
adams	-14134
nders	-14135
pened	-14136
▁1911	-14137
▁angl	-14138
▁hire	-14139
▁kitt	-14140
▁perm	-14141
▁piet	-14142
▁slay	-14143
▁slee	-14144
asanjo	-14145
▁1920,	-14146
▁1930.	-14147
▁1982,	-14148
▁lords	-14149
itarian	-14150
▁garcia	-14151
▁render	-14152
▁backing	-14153
▁divisie	-14154
▁episode	-14155
▁tablets	-14156
▁updated	-14157
▁belgrade	-14158
▁eleventh	-14159
▁episodes	-14160
▁happened	-14161
▁floorarea	-14162
▁gianluigi	-14163
▁innocence	-14164
▁reduction	-14165
▁repression	-14166
▁statistics	-14167
▁mathematician	-14168
úi	-14169
aac	-14170
gel	-14171
▁85	-14172
▁mk	-14173
▁pp	-14174
▁wy	-14175
asch	-14176
avos	-14177
chúi	-14178
emer	-14179
enna	-14180
ngel	-14181
ouri	-14182
teod	-14183
uels	-14184
vins	-14185
▁7.9	-14186
▁hij	-14187
▁ils	-14188
▁jer	-14189
▁msa	-14190
break	-14191
octed	-14192
oyage	-14193
timer	-14194
▁1634	-14195
▁dawn	-14196
▁eyes	-14197
▁leng	-14198
▁stor	-14199
▁wine	-14200
andise	-14201
aschke	-14202
▁1852,	-14203
▁1865.	-14204
▁duels	-14205
▁huron	-14206
▁isaac	-14207
▁lapaz	-14208
▁wrong	-14209
▁ángel	-14210
ributed	-14211
▁basics	-14212
▁clause	-14213
▁hijack	-14214
▁prohib	-14215
▁tongva	-14216
▁unions	-14217
▁viking	-14218
security	-14219
▁barrier	-14220
▁buscema	-14221
▁empires	-14222
▁freeway	-14223
▁mansion	-14224
▁skywest	-14225
blackpool	-14226
teodorico	-14227
▁alliance	-14228
▁centavos	-14229
▁invested	-14230
▁midfield	-14231
▁oldtimer	-14232
▁sanction	-14233
▁caribbean	-14234
▁concocted	-14235
▁greenwich	-14236
▁steadfast	-14237
▁autonomous	-14238
▁matriciana	-14239
▁merchandise	-14240
▁southwestern	-14241
▁neighborhoods	-14242
cd	-14243
olu	-14244
▁pé	-14245
▁rq	-14246
anto	-14247
atas	-14248
send	-14249
uses	-14250
▁(16	-14251
▁tap	-14252
adolu	-14253
erved	-14254
ietam	-14255
leton	-14256
▁9000	-14257
▁runs	-14258
▁sier	-14259
olated	-14260
reform	-14261
stitut	-14262
thesis	-14263
▁1962.	-14264
colmore	-14265
ophytes	-14266
profess	-14267
▁delays	-14268
▁pietro	-14269
▁scenes	-14270
▁vacant	-14271
▁diction	-14272
▁fitting	-14273
▁antietam	-14274
▁areacode	-14275
▁limerick	-14276
▁afterward	-14277
▁alexandra	-14278
▁otherwise	-14279
▁penalties	-14280
▁dictionary	-14281
professional	-14282
nb	-14283
aha	-14284
may	-14285
rol	-14286
haru	-14287
▁lnb	-14288
andth	-14289
asser	-14290
matic	-14291
valet	-14292
▁harm	-14293
▁isan	-14294
▁peso	-14295
active	-14296
houses	-14297
▁asvel	-14298
▁bruce	-14299
▁curie	-14300
▁grail	-14301
▁stell	-14302
▁thing	-14303
▁trent	-14304
▁tsugu	-14305
ighting	-14306
▁hangar	-14307
▁sayeed	-14308
▁unesco	-14309
▁winger	-14310
▁foujita	-14311
▁rupiahs	-14312
▁showers	-14313
▁archways	-14314
▁herschel	-14315
▁injuries	-14316
▁scrolled	-14317
▁tasmania	-14318
▁weymouth	-14319
▁bathhouse	-14320
▁deportivo	-14321
▁reappears	-14322
▁tsuguharu	-14323
▁bathhouses	-14324
▁surprising	-14325
▁introduction	-14326
▁negotiations	-14327
ls	-14328
zg	-14329
blaz	-14330
iato	-14331
oned	-14332
raid	-14333
uego	-14334
uous	-14335
▁6.1	-14336
▁64,	-14337
▁ark	-14338
▁kin	-14339
going	-14340
▁(187	-14341
▁boch	-14342
▁donn	-14343
▁golf	-14344
▁rect	-14345
.1,130	-14346
erally	-14347
▁1970,	-14348
▁menus	-14349
▁talks	-14350
▁afraid	-14351
▁bladed	-14352
▁emblaz	-14353
▁marine	-14354
▁refere	-14355
▁struck	-14356
▁imagery	-14357
▁install	-14358
▁rapidly	-14359
▁hannover	-14360
▁relating	-14361
aleksandre	-14362
▁affection	-14363
▁methodist	-14364
▁emblazoning	-14365
▁rededicated	-14366
▁colonialists	-14367
▁presentation	-14368
ól	-14369
din	-14370
fas	-14371
iyi	-14372
▁tc	-14373
anos	-14374
lyde	-14375
oses	-14376
uson	-14377
wild	-14378
▁96.	-14379
▁98.	-14380
-1950	-14381
emper	-14382
icies	-14383
▁bakü	-14384
▁bakı	-14385
▁brid	-14386
▁mits	-14387
▁prag	-14388
▁rick	-14389
▁tank	-14390
0,000-	-14391
cesena	-14392
inking	-14393
otakis	-14394
▁1912.	-14395
▁aidan	-14396
▁astro	-14397
▁clyde	-14398
▁exile	-14399
▁padua	-14400
▁viana	-14401
created	-14402
▁alison	-14403
▁budget	-14404
▁damage	-14405
▁mobile	-14406
▁romans	-14407
activity	-14408
iliatory	-14409
▁anadolu	-14410
▁fascist	-14411
▁harmony	-14412
▁kelvins	-14413
▁outlets	-14414
reformers	-14415
▁isolated	-14416
▁minerals	-14417
▁policies	-14418
▁portions	-14419
▁strength	-14420
▁ventures	-14421
▁victoria	-14422
▁pragmatic	-14423
▁promoting	-14424
▁residence	-14425
▁şəhidliyi	-14426
▁adirondack	-14427
▁automobile	-14428
▁bankrupted	-14429
▁mitsotakis	-14430
▁projecting	-14431
▁threatened	-14432
▁agriculture	-14433
▁contractors	-14434
▁conciliatory	-14435
▁communication	-14436
sü	-14437
570	-14438
idn	-14439
sud	-14440
7,55	-14441
8","	-14442
ados	-14443
fred	-14444
heav	-14445
hein	-14446
mike	-14447
punk	-14448
sülz	-14449
vera	-14450
▁1-0	-14451
▁amc	-14452
▁dan	-14453
spiel	-14454
▁cska	-14455
▁emir	-14456
▁knee	-14457
▁pict	-14458
▁shif	-14459
donald	-14460
▁pinto	-14461
▁quest	-14462
ocratic	-14463
trainer	-14464
▁coupes	-14465
▁sergey	-14466
▁sierra	-14467
boarding	-14468
▁absolut	-14469
▁manfred	-14470
▁referee	-14471
▁resumed	-14472
▁singers	-14473
▁lawrence	-14474
▁nobility	-14475
▁takeover	-14476
▁eindhoven	-14477
▁implement	-14478
▁divisional	-14479
▁behavioural	-14480
▁countryside	-14481
▁prominently	-14482
▁surprisingly	-14483
▁illustrations	-14484
%)	-14485
mun	-14486
yff	-14487
aska	-14488
carl	-14489
erei	-14490
obel	-14491
▁(29	-14492
▁44,	-14493
▁94.	-14494
▁fix	-14495
ereed	-14496
names	-14497
offic	-14498
▁1903	-14499
▁miri	-14500
agoing	-14501
buenos	-14502
fields	-14503
scales	-14504
▁davis	-14505
▁reyes	-14506
▁arkona	-14507
▁caters	-14508
▁cruyff	-14509
▁marked	-14510
▁simoni	-14511
ationers	-14512
▁2015–16	-14513
▁grasses	-14514
▁onboard	-14515
ereederei	-14516
▁aidanova	-14517
▁clerical	-14518
▁mohammad	-14519
▁recovers	-14520
▁seagoing	-14521
▁airliners	-14522
▁convinces	-14523
▁touristik	-14524
▁academical	-14525
▁affiliated	-14526
historically	-14527
▁vacationers	-14528
▁activeyearsend	-14529
52	-14530
dis	-14531
gdp	-14532
isa	-14533
▁fu	-14534
▁sí	-14535
adio	-14536
albu	-14537
arel	-14538
▁18.	-14539
▁322	-14540
▁asc	-14541
males	-14542
ocked	-14543
perto	-14544
stars	-14545
▁asks	-14546
▁lind	-14547
▁trop	-14548
secret	-14549
▁1919.	-14550
▁accol	-14551
▁aster	-14552
▁guerr	-14553
▁manip	-14554
▁pound	-14555
▁rally	-14556
▁stint	-14557
▁widow	-14558
▁leased	-14559
▁tourer	-14560
▁vessel	-14561
pertoire	-14562
▁branded	-14563
▁cracked	-14564
▁disgust	-14565
▁estadio	-14566
▁jamaica	-14567
▁merging	-14568
▁newborn	-14569
▁reality	-14570
emperature	-14571
▁arranging	-14572
▁divergent	-14573
albuquerque	-14574
▁decorative	-14575
▁repertoire	-14576
▁consumption	-14577
▁reorganized	-14578
▁professionalism	-14579
▁+	-14580
4%)	-14581
ito	-14582
$3,8	-14583
000)	-14584
appy	-14585
atro	-14586
fuel	-14587
iati	-14588
igno	-14589
▁hac	-14590
▁unh	-14591
ahmet	-14592
inesa	-14593
uncan	-14594
▁fame	-14595
▁jams	-14596
▁stef	-14597
▁tois	-14598
▁wake	-14599
-2006.	-14600
/2016,	-14601
assion	-14602
brecht	-14603
comple	-14604
dinand	-14605
▁1863.	-14606
▁1896.	-14607
▁1943,	-14608
▁6,200	-14609
▁fever	-14610
▁flees	-14611
▁glory	-14612
enstein	-14613
stadion	-14614
▁160,00	-14615
▁depots	-14616
▁formal	-14617
▁gotham	-14618
▁horton	-14619
▁neighb	-14620
▁quatro	-14621
▁refuge	-14622
extended	-14623
fighting	-14624
▁(2015).	-14625
▁2013","	-14626
▁amassed	-14627
▁antonis	-14628
▁chinesa	-14629
▁hangars	-14630
▁minimal	-14631
▁picture	-14632
▁unhappy	-14633
▁honoured	-14634
▁launcher	-14635
▁withdraw	-14636
▁ferdinand	-14637
▁fevereiro	-14638
▁finalised	-14639
▁generator	-14640
▁odebrecht	-14641
▁2015/2016,	-14642
▁antioquian	-14643
▁compassion	-14644
▁councillor	-14645
▁disappears	-14646
▁encounters	-14647
▁underlying	-14648
▁personality	-14649
▁revaluation	-14650
▁wallenstein	-14651
complementary	-14652
▁constructing	-14653
▁unsuccessfully	-14654
ió	-14655
-06	-14656
79,	-14657
bré	-14658
eno	-14659
fue	-14660
iai	-14661
nam	-14662
uno	-14663
uyó	-14664
áns	-14665
▁tu	-14666
.29.	-14667
ablu	-14668
ajal	-14669
anté	-14670
aram	-14671
arne	-14672
arst	-14673
cris	-14674
hyth	-14675
igos	-14676
isan	-14677
ocho	-14678
olsa	-14679
▁161	-14680
▁dól	-14681
▁ema	-14682
▁mcc	-14683
▁por	-14684
▁rid	-14685
▁sak	-14686
...')	-14687
adiva	-14688
angar	-14689
canté	-14690
essed	-14691
ettes	-14692
ggins	-14693
gunos	-14694
hythm	-14695
incón	-14696
orset	-14697
pocho	-14698
radio	-14699
▁fict	-14700
▁irib	-14701
▁para	-14702
▁pero	-14703
.29.50	-14704
achelo	-14705
caster	-14706
iplano	-14707
league	-14708
▁).","	-14709
▁1021,	-14710
▁1854,	-14711
▁1983,	-14712
▁abner	-14713
▁attic	-14714
▁bolsa	-14715
▁cobré	-14716
▁césar	-14717
▁ellos	-14718
▁gallo	-14719
▁knots	-14720
▁lanza	-14721
▁nueva	-14722
▁pesos	-14723
▁sodre	-14724
▁temas	-14725
▁tenía	-14726
aguarón	-14727
aisella	-14728
ativist	-14729
enteaba	-14730
itorium	-14731
officer	-14732
rettist	-14733
▁amigos	-14734
▁amorín	-14735
▁cantar	-14736
▁dorset	-14737
▁duráns	-14738
▁hearst	-14739
▁looked	-14740
▁manors	-14741
▁marcha	-14742
▁muchos	-14743
▁obligó	-14744
▁reunir	-14745
▁rincón	-14746
▁trades	-14747
uitously	-14748
▁agencia	-14749
▁aidablu	-14750
▁aidamar	-14751
▁algunos	-14752
▁aquiles	-14753
▁barrios	-14754
▁canción	-14755
▁dólares	-14756
▁implied	-14757
▁incluyó	-14758
▁killing	-14759
▁medanos	-14760
▁pachelo	-14761
▁recalls	-14762
▁staunch	-14763
▁wiggins	-14764
preserved	-14765
zitarrosa	-14766
▁agencies	-14767
▁aidadiva	-14768
▁carbajal	-14769
▁commuted	-14770
▁debuting	-14771
▁federico	-14772
▁gazettes	-14773
▁harcourt	-14774
▁iribarne	-14775
▁milongas	-14776
▁permitió	-14777
▁programa	-14778
▁yaguarón	-14779
▁aidabella	-14780
▁altiplano	-14781
▁chartered	-14782
▁democrats	-14783
▁fictional	-14784
▁filipinos	-14785
▁prevented	-14786
▁auditorium	-14787
▁doraisella	-14788
▁eliminated	-14789
▁librettist	-14790
▁orchestras	-14791
▁propellers	-14792
▁publicidad	-14793
▁regenteaba	-14794
▁afghanistan	-14795
▁argentinean	-14796
▁broadcaster	-14797
▁entertainer	-14798
▁fortuitously	-14799
▁panamericana	-14800
▁informativist	-14801
▁modernization	-14802
▁subscriptions	-14803
▁neighbourhoods	-14804
▁serviceofficer	-14805
ōt	-14806
877	-14807
aux	-14808
eir	-14809
fan	-14810
anum	-14811
demi	-14812
gard	-14813
lock	-14814
osse	-14815
ramm	-14816
ungy	-14817
▁0.5	-14818
▁47%	-14819
▁70.	-14820
▁bon	-14821
▁cri	-14822
▁etc	-14823
▁ger	-14824
▁gōt	-14825
▁hoz	-14826
▁pug	-14827
▁rin	-14828
-2011	-14829
adele	-14830
andao	-14831
inist	-14832
right	-14833
subst	-14834
▁1840	-14835
▁bett	-14836
▁cher	-14837
▁jord	-14838
▁mahm	-14839
▁mini	-14840
▁soho	-14841
▁ster	-14842
grungy	-14843
osseum	-14844
titled	-14845
▁1996.	-14846
▁6,300	-14847
▁8,500	-14848
▁boxes	-14849
▁conor	-14850
▁hague	-14851
▁homec	-14852
▁jonas	-14853
▁kinds	-14854
▁kodal	-14855
▁maker	-14856
▁sakai	-14857
alcohol	-14858
britney	-14859
changed	-14860
ictions	-14861
▁1939).	-14862
▁73.","	-14863
▁arenas	-14864
▁beauty	-14865
▁dating	-14866
▁feudal	-14867
▁guards	-14868
▁gōtoku	-14869
▁hozier	-14870
▁lauder	-14871
▁lovato	-14872
▁spears	-14873
▁suited	-14874
▁wander	-14875
stunning	-14876
suburban	-14877
▁adamson	-14878
▁bandeir	-14879
▁brandao	-14880
▁crosbie	-14881
▁ensuing	-14882
▁finland	-14883
▁likened	-14884
▁loading	-14885
▁mandate	-14886
▁renewed	-14887
▁roberto	-14888
abilities	-14889
developer	-14890
[...]
